{
  "version": "1.0",
  "truncation": null,
  "padding": null,
  "added_tokens": [
    {
      "id": 0,
      "content": "<s>",
      "single_word": false,
      "lstrip": false,
      "rstrip": false,
      "normalized": false,
      "special": true
    },
    {
      "id": 1,
      "content": "<pad>",
      "single_word": false,
      "lstrip": false,
      "rstrip": false,
      "normalized": false,
      "special": true
    },
    {
      "id": 2,
      "content": "</s>",
      "single_word": false,
      "lstrip": false,
      "rstrip": false,
      "normalized": false,
      "special": true
    },
    {
      "id": 3,
      "content": "<unk>",
      "single_word": false,
      "lstrip": false,
      "rstrip": false,
      "normalized": false,
      "special": true
    },
    {
      "id": 4,
      "content": "<mask>",
      "single_word": false,
      "lstrip": false,
      "rstrip": false,
      "normalized": false,
      "special": true
    },
    {
      "id": 5,
      "content": "<lang_jp>",
      "single_word": false,
      "lstrip": false,
      "rstrip": false,
      "normalized": false,
      "special": true
    },
    {
      "id": 6,
      "content": "<lang_en>",
      "single_word": false,
      "lstrip": false,
      "rstrip": false,
      "normalized": false,
      "special": true
    },
    {
      "id": 7,
      "content": "<lang_fr>",
      "single_word": false,
      "lstrip": false,
      "rstrip": false,
      "normalized": false,
      "special": true
    },
    {
      "id": 8,
      "content": "<lang_de>",
      "single_word": false,
      "lstrip": false,
      "rstrip": false,
      "normalized": false,
      "special": true
    },
    {
      "id": 9,
      "content": "<lang_fa>",
      "single_word": false,
      "lstrip": false,
      "rstrip": false,
      "normalized": false,
      "special": true
    }
  ],
  "normalizer": null,
  "pre_tokenizer": {
    "type": "ByteLevel",
    "add_prefix_space": true,
    "trim_offsets": true,
    "use_regex": true
  },
  "post_processor": null,
  "decoder": {
    "type": "ByteLevel",
    "add_prefix_space": true,
    "trim_offsets": true,
    "use_regex": true
  },
  "model": {
    "type": "BPE",
    "dropout": null,
    "unk_token": null,
    "continuing_subword_prefix": null,
    "end_of_word_suffix": null,
    "fuse_unk": false,
    "byte_fallback": false,
    "ignore_merges": false,
    "vocab": {
      "<s>": 0,
      "<pad>": 1,
      "</s>": 2,
      "<unk>": 3,
      "<mask>": 4,
      "<lang_jp>": 5,
      "<lang_en>": 6,
      "<lang_fr>": 7,
      "<lang_de>": 8,
      "<lang_fa>": 9,
      "!": 10,
      "\"": 11,
      "#": 12,
      "$": 13,
      "%": 14,
      "&": 15,
      "'": 16,
      "(": 17,
      ")": 18,
      "*": 19,
      "+": 20,
      ",": 21,
      "-": 22,
      ".": 23,
      "/": 24,
      "0": 25,
      "1": 26,
      "2": 27,
      "3": 28,
      "4": 29,
      "5": 30,
      "6": 31,
      "7": 32,
      "8": 33,
      "9": 34,
      ":": 35,
      ";": 36,
      "<": 37,
      "=": 38,
      ">": 39,
      "?": 40,
      "@": 41,
      "A": 42,
      "B": 43,
      "C": 44,
      "D": 45,
      "E": 46,
      "F": 47,
      "G": 48,
      "H": 49,
      "I": 50,
      "J": 51,
      "K": 52,
      "L": 53,
      "M": 54,
      "N": 55,
      "O": 56,
      "P": 57,
      "Q": 58,
      "R": 59,
      "S": 60,
      "T": 61,
      "U": 62,
      "V": 63,
      "W": 64,
      "X": 65,
      "Y": 66,
      "Z": 67,
      "[": 68,
      "\\": 69,
      "]": 70,
      "^": 71,
      "_": 72,
      "`": 73,
      "a": 74,
      "b": 75,
      "c": 76,
      "d": 77,
      "e": 78,
      "f": 79,
      "g": 80,
      "h": 81,
      "i": 82,
      "j": 83,
      "k": 84,
      "l": 85,
      "m": 86,
      "n": 87,
      "o": 88,
      "p": 89,
      "q": 90,
      "r": 91,
      "s": 92,
      "t": 93,
      "u": 94,
      "v": 95,
      "w": 96,
      "x": 97,
      "y": 98,
      "z": 99,
      "{": 100,
      "|": 101,
      "}": 102,
      "~": 103,
      "¡": 104,
      "¢": 105,
      "£": 106,
      "¤": 107,
      "¥": 108,
      "¦": 109,
      "§": 110,
      "¨": 111,
      "©": 112,
      "ª": 113,
      "«": 114,
      "¬": 115,
      "®": 116,
      "¯": 117,
      "°": 118,
      "±": 119,
      "²": 120,
      "³": 121,
      "´": 122,
      "µ": 123,
      "¶": 124,
      "·": 125,
      "¸": 126,
      "¹": 127,
      "º": 128,
      "»": 129,
      "¼": 130,
      "½": 131,
      "¾": 132,
      "¿": 133,
      "Â": 134,
      "Ã": 135,
      "Ä": 136,
      "Å": 137,
      "Æ": 138,
      "Ç": 139,
      "È": 140,
      "É": 141,
      "Ê": 142,
      "Ë": 143,
      "Ì": 144,
      "Í": 145,
      "Î": 146,
      "Ï": 147,
      "Ð": 148,
      "Ñ": 149,
      "Ò": 150,
      "Ó": 151,
      "Ô": 152,
      "Õ": 153,
      "Ö": 154,
      "×": 155,
      "Ø": 156,
      "Ù": 157,
      "Ú": 158,
      "Û": 159,
      "Ü": 160,
      "Ý": 161,
      "Þ": 162,
      "ß": 163,
      "à": 164,
      "á": 165,
      "â": 166,
      "ã": 167,
      "ä": 168,
      "å": 169,
      "æ": 170,
      "ç": 171,
      "è": 172,
      "é": 173,
      "ê": 174,
      "ë": 175,
      "ì": 176,
      "í": 177,
      "î": 178,
      "ï": 179,
      "ð": 180,
      "ó": 181,
      "ĉ": 182,
      "Ġ": 183,
      "ġ": 184,
      "Ģ": 185,
      "ģ": 186,
      "Ĥ": 187,
      "ĥ": 188,
      "Ħ": 189,
      "ħ": 190,
      "Ĩ": 191,
      "ĩ": 192,
      "Ī": 193,
      "ī": 194,
      "Ĭ": 195,
      "ĭ": 196,
      "Į": 197,
      "į": 198,
      "İ": 199,
      "ı": 200,
      "Ĳ": 201,
      "ĳ": 202,
      "Ĵ": 203,
      "ĵ": 204,
      "Ķ": 205,
      "ķ": 206,
      "ĸ": 207,
      "Ĺ": 208,
      "ĺ": 209,
      "Ļ": 210,
      "ļ": 211,
      "Ľ": 212,
      "ľ": 213,
      "Ŀ": 214,
      "ŀ": 215,
      "Ł": 216,
      "ł": 217,
      "Ń": 218,
      "an": 219,
      "ãĥ": 220,
      "ãģ": 221,
      "lan": 222,
      "lang": 223,
      "Ġ<": 224,
      "ãĤ": 225,
      "en": 226,
      "er": 227,
      "ja": 228,
      "in": 229,
      "on": 230,
      "es": 231,
      "Ġd": 232,
      "ãĢ": 233,
      "at": 234,
      "Ġt": 235,
      "or": 236,
      "is": 237,
      "al": 238,
      "he": 239,
      "fr": 240,
      "ar": 241,
      "ãģ®": 242,
      "ãĥ¼": 243,
      "it": 244,
      "de": 245,
      "Ã©": 246,
      "ĠS": 247,
      "ic": 248,
      "Ġs": 249,
      "Ø§": 250,
      "ãĥ³": 251,
      "ĠC": 252,
      "le": 253,
      "==": 254,
      "Ġa": 255,
      "re": 256,
      "ĠA": 257,
      "20": 258,
      "ion": 259,
      "Ġthe": 260,
      "ch": 261,
      "ie": 262,
      "Ġ1": 263,
      "ãĢģ": 264,
      "Ġ(": 265,
      "Ġo": 266,
      "ÛĮ": 267,
      "Ġp": 268,
      "ur": 269,
      "un": 270,
      "as": 271,
      "ĠM": 272,
      "il": 273,
      "Ġc": 274,
      "Ġ==": 275,
      "ĠØ": 276,
      "Ġde": 277,
      "å¹": 278,
      "ï¼": 279,
      "ĠT": 280,
      "ĠB": 281,
      "Ġw": 282,
      "ĠP": 283,
      "Ġl": 284,
      "Ġ20": 285,
      "ãģ«": 286,
      "om": 287,
      "ed": 288,
      "Ġin": 289,
      "ãĢĤ": 290,
      "Ġm": 291,
      "ent": 292,
      "ãĤ¹": 293,
      "å¹´": 294,
      "Ġof": 295,
      "ĠL": 296,
      "ãĤĭ": 297,
      "ãĥ«": 298,
      "æľ": 299,
      "Ġf": 300,
      "am": 301,
      "Ġb": 302,
      "us": 303,
      "et": 304,
      "ing": 305,
      "ä¸": 306,
      "ãĥ»": 307,
      "and": 308,
      "ro": 309,
      "el": 310,
      "Ø±": 311,
      "ĠD": 312,
      "ãģŁ": 313,
      "ÙĨ": 314,
      "Ġå": 315,
      "ãĥª": 316,
      "Ġ19": 317,
      "ĠF": 318,
      "ĠR": 319,
      "ol": 320,
      "ĠG": 321,
      "ãģ¨": 322,
      "ãģ¯": 323,
      "ĠI": 324,
      "te": 325,
      "ãĤĴ": 326,
      "ãģĦ": 327,
      "äº": 328,
      "Ùĩ": 329,
      "ãģĹ": 330,
      "ãģ¦": 331,
      "âĢ": 332,
      "ãĥ¼ãĥ": 333,
      "ĠE": 334,
      "ÙĪ": 335,
      "qu": 336,
      "ãĤ¤": 337,
      "ãĤ¢": 338,
      "fa": 339,
      "ĠH": 340,
      "Ġãĥ": 341,
      "ĠW": 342,
      "ĠJ": 343,
      "ãģ§": 344,
      "ut": 345,
      "ĠN": 346,
      "ra": 347,
      "ation": 348,
      "æĹ": 349,
      "ãģĮ": 350,
      "çĶ": 351,
      "ers": 352,
      "ĠO": 353,
      "ãĤ¯": 354,
      "ãĥĥ": 355,
      "ãĥ³ãĥ": 356,
      "ly": 357,
      "ag": 358,
      "Ġ201": 359,
      "ĠK": 360,
      "ig": 361,
      "Ġand": 362,
      "Ġh": 363,
      "Ùħ": 364,
      "Ġn": 365,
      "ãĥ©": 366,
      "mp": 367,
      "st": 368,
      "æĹ¥": 369,
      "åŃ": 370,
      "Ø¯": 371,
      "ot": 372,
      "ãĤĮ": 373,
      "ist": 374,
      "å¤": 375,
      "Ġe": 376,
      "ri": 377,
      "Ġæ": 378,
      "ãĥĪ": 379,
      "ct": 380,
      "ï¼Ī": 381,
      "ï¼ī": 382,
      "um": 383,
      "ir": 384,
      "ãģª": 385,
      "ce": 386,
      "Ġv": 387,
      "Ġun": 388,
      "ÙĦ": 389,
      "iv": 390,
      "ter": 391,
      "ĠãĤ": 392,
      "Ġto": 393,
      "im": 394,
      "å®": 395,
      "åĽ": 396,
      "åħ": 397,
      "Øª": 398,
      "Ġg": 399,
      "est": 400,
      "åı": 401,
      "ort": 402,
      "éģ": 403,
      "ul": 404,
      "all": 405,
      "id": 406,
      "ia": 407,
      "ãĥ¼ãĤ": 408,
      "æľĪ": 409,
      "ay": 410,
      "os": 411,
      "ich": 412,
      "ad": 413,
      "ik": 414,
      "ĠV": 415,
      "ãĥ³ãĤ": 416,
      "lymp": 417,
      "åĲ": 418,
      "op": 419,
      "ä½": 420,
      "Ú©": 421,
      "åĪ": 422,
      "Ġre": 423,
      "ip": 424,
      "Ø§Ø": 425,
      "ine": 426,
      "ä»": 427,
      "Ġ===": 428,
      "ĠÃ": 429,
      "ĠU": 430,
      "ãģķ": 431,
      "ãģĭ": 432,
      "ĠCh": 433,
      "ãĥ¬": 434,
      "ant": 435,
      "Ġç": 436,
      "ãĥŃ": 437,
      "ux": 438,
      "Ġla": 439,
      "æī": 440,
      "em": 441,
      "éĢ": 442,
      "Ġdes": 443,
      "ãĤī": 444,
      "éĸ": 445,
      "ãģ£": 446,
      "ãĤ·": 447,
      "iqu": 448,
      "Ġen": 449,
      "ãĤ£": 450,
      "Ġ200": 451,
      "è¡": 452,
      "ãĤ¿": 453,
      "ä¼": 454,
      "ĠIn": 455,
      "Ø§ÙĨ": 456,
      "ãģĤ": 457,
      "è¨": 458,
      "les": 459,
      "ãĤĬ": 460,
      "if": 461,
      "gor": 462,
      "ne": 463,
      "éĥ": 464,
      "ãģĻ": 465,
      "åŃ¦": 466,
      "ãģ¦ãģĦ": 467,
      "æľ¬": 468,
      "art": 469,
      "our": 470,
      "Ġder": 471,
      "ou": 472,
      "ãĥķ": 473,
      "å¸": 474,
      "ãĤ«": 475,
      "Ġle": 476,
      "ber": 477,
      "gorie": 478,
      "Ġth": 479,
      "å¤§": 480,
      "Ġat": 481,
      "æĸ": 482,
      "ĠThe": 483,
      "che": 484,
      "ith": 485,
      "19": 486,
      "ĠSt": 487,
      "ãĤª": 488,
      "og": 489,
      "mer": 490,
      "Ġr": 491,
      "ow": 492,
      "ab": 493,
      "âĢĮ": 494,
      "âĢĵ": 495,
      "oc": 496,
      "Ã¨": 497,
      "Ġ-": 498,
      "ãģķãĤĮ": 499,
      "th": 500,
      "ãģ®å": 501,
      "Ø§ÛĮ": 502,
      "ac": 503,
      "Ġbe": 504,
      "ãģĵ": 505,
      "ĠOlymp": 506,
      "ãĤ¸": 507,
      "ap": 508,
      "æĪ": 509,
      "Ø³": 510,
      "Ġ2": 511,
      "ans": 512,
      "æĿ": 513,
      "Ã¤": 514,
      "age": 515,
      "ate": 516,
      "Ġè": 517,
      "Ġfor": 518,
      "ãĤĤ": 519,
      "Ã¼": 520,
      "ĠCat": 521,
      "ov": 522,
      "äºº": 523,
      "up": 524,
      "ung": 525,
      "Ġet": 526,
      "Ġse": 527,
      "ball": 528,
      "rt": 529,
      "Ġst": 530,
      "ien": 531,
      "Ġcon": 532,
      "å·": 533,
      "ub": 534,
      "çĽ": 535,
      "00": 536,
      "ãĥĥãĤ¯": 537,
      "ess": 538,
      "ãĥĨ": 539,
      "Ġwith": 540,
      "éĩ": 541,
      "Ġund": 542,
      "å±": 543,
      "ian": 544,
      "ãĥī": 545,
      "Ġon": 546,
      "ĠØ¨": 547,
      "Ã©gorie": 548,
      "ge": 549,
      "ãģ®æ": 550,
      "ĠCatÃ©gorie": 551,
      "ĠÙħ": 552,
      "åĽ½": 553,
      "ain": 554,
      "åľ": 555,
      "ier": 556,
      "'s": 557,
      "Ġdu": 558,
      "av": 559,
      "ãĥ£": 560,
      "ãĢĮ": 561,
      "ãĢį": 562,
      "ãģĨ": 563,
      "Ġis": 564,
      "ãĥŀ": 565,
      "çµ": 566,
      "èª": 567,
      "ãģ¦ãģĦãĤĭ": 568,
      "ãģĻãĤĭ": 569,
      "æīĭ": 570,
      "ä¼ļ": 571,
      "ĠØ¯": 572,
      "ics": 573,
      "ãģĹãģŁ": 574,
      "åº": 575,
      "ak": 576,
      "ãĥ¥": 577,
      "åŃĲ": 578,
      "omm": 579,
      "Ġfr": 580,
      "çī": 581,
      "od": 582,
      "ãĥĸ": 583,
      "ãĤ¦": 584,
      "Ġan": 585,
      "åĮ": 586,
      "ãĥĭ": 587,
      "ãĥĲ": 588,
      "ĠLe": 589,
      "éģ¸": 590,
      "ç«": 591,
      "ç·": 592,
      "Ġé": 593,
      "ãģ¾": 594,
      "ãĤ³": 595,
      "ard": 596,
      "è¦": 597,
      "Ġal": 598,
      "ies": 599,
      "Ú¯": 600,
      "åĭ": 601,
      "ãĥ¼ãĥ«": 602,
      "ĠÃł": 603,
      "Ġwas": 604,
      "ãģĤãĤĭ": 605,
      "ãĥĩ": 606,
      "ãĥ¡": 607,
      "ä¸Ń": 608,
      "ill": 609,
      "amp": 610,
      "ten": 611,
      "Ġas": 612,
      "ud": 613,
      "å¸Ĥ": 614,
      "ãĤĪ": 615,
      "åį": 616,
      "Ùģ": 617,
      "Ø¨": 618,
      "æĹ¥æľ¬": 619,
      "ue": 620,
      "rtic": 621,
      "Ø§Ø±": 622,
      "ass": 623,
      "Ã©t": 624,
      "Ġau": 625,
      "Ã©s": 626,
      "äºĭ": 627,
      "ug": 628,
      "ãĥł": 629,
      "ire": 630,
      "ä¸Ģ": 631,
      "Ġdie": 632,
      "ãĤ§": 633,
      "ational": 634,
      "å½": 635,
      "Ġ199": 636,
      "æķ": 637,
      "ãĥĹ": 638,
      "Ġ3": 639,
      "ĠAn": 640,
      "å¾": 641,
      "ec": 642,
      "ord": 643,
      "æĺ": 644,
      "çľ": 645,
      "ah": 646,
      "ions": 647,
      "ere": 648,
      "ĠAl": 649,
      "ãģ£ãģŁ": 650,
      "ail": 651,
      "æŃ": 652,
      "ĩº": 653,
      "è»": 654,
      "ãĥĬ": 655,
      "Ġpro": 656,
      "ãĤµ": 657,
      "ĠUn": 658,
      "å°": 659,
      "Ġk": 660,
      "ity": 661,
      "Ø§ÙĦ": 662,
      "åł": 663,
      "ph": 664,
      "Ġz": 665,
      "ach": 666,
      "ãģı": 667,
      "me": 668,
      "ãģį": 669,
      "ong": 670,
      "ãģĹãģ¦": 671,
      "Ġqu": 672,
      "ãĥĵ": 673,
      "çĻ": 674,
      "ãĤ¨": 675,
      "wik": 676,
      "Ù¾": 677,
      "ran": 678,
      "ell": 679,
      "ãĤŃ": 680,
      "æ°": 681,
      "ment": 682,
      "ast": 683,
      "ure": 684,
      "æł": 685,
      "ver": 686,
      "83": 687,
      "èŃ": 688,
      "end": 689,
      "ĠRe": 690,
      "ique": 691,
      "éģ¸æīĭ": 692,
      "ial": 693,
      "land": 694,
      "éĽ": 695,
      "Ġwh": 696,
      "au": 697,
      "Ø¯Ùĩ": 698,
      "ĠY": 699,
      "iques": 700,
      "ew": 701,
      "ische": 702,
      "rticles": 703,
      "æ¥": 704,
      "igh": 705,
      "åĬ": 706,
      "éĥ¨": 707,
      "und": 708,
      "omp": 709,
      "ang": 710,
      "Ġby": 711,
      "ens": 712,
      "ãĤģ": 713,
      "éĻ": 714,
      "ff": 715,
      "ãģĭãĤī": 716,
      "ãĥģ": 717,
      "å¼": 718,
      "çķ": 719,
      "ĠJe": 720,
      "ç´": 721,
      "çĶ°": 722,
      "org": 723,
      "ob": 724,
      "oot": 725,
      "are": 726,
      "ĠØ±": 727,
      "ann": 728,
      "ib": 729,
      "ãģĬ": 730,
      "ust": 731,
      "ĠZ": 732,
      "ä¿": 733,
      "èĢ": 734,
      "Ġest": 735,
      "ld": 736,
      "Ġpl": 737,
      "åĩº": 738,
      "ãģĳ": 739,
      "ĠOlympics": 740,
      "201": 741,
      "æ³": 742,
      "port": 743,
      "æĮ": 744,
      "Ġfrom": 745,
      "è¨ĺ": 746,
      "Ġch": 747,
      "æĽ": 748,
      "tern": 749,
      "isch": 750,
      "æĶ": 751,
      "å¹´ãģ®": 752,
      "ont": 753,
      "Ã¶": 754,
      "ern": 755,
      "Ø´": 756,
      "ive": 757,
      "Ġpar": 758,
      "å¯": 759,
      "çĶŁ": 760,
      "ft": 761,
      "ç¤": 762,
      "Ġaux": 763,
      "æµ": 764,
      "¬¬": 765,
      "ä»£": 766,
      "Ã©r": 767,
      "ãĢİ": 768,
      "ãĢı": 769,
      "ãĥ§": 770,
      "pie": 771,
      "res": 772,
      "ãĤĵ": 773,
      "sch": 774,
      "pe": 775,
      "Ġ2016": 776,
      "ĠØ§Ø": 777,
      "ais": 778,
      "çĲ": 779,
      "ond": 780,
      "è¡Į": 781,
      "ç§": 782,
      "Ġ4": 783,
      "æĻ": 784,
      "å¥": 785,
      "Ġ198": 786,
      "ãĥŁ": 787,
      "se": 788,
      "Ġj": 789,
      "ãĤ°": 790,
      "Ġex": 791,
      "Ġolymp": 792,
      "ok": 793,
      "åĲĪ": 794,
      "åĵ": 795,
      "Ġå¤": 796,
      "ĠÚ©": 797,
      "Ġles": 798,
      "ãģ¤": 799,
      "ĠÙĪ": 800,
      "rit": 801,
      "ĠMar": 802,
      "ãģĿ": 803,
      "ish": 804,
      "å®ļ": 805,
      "tt": 806,
      "ãĥ³ãĥī": 807,
      "ä½ľ": 808,
      "ootball": 809,
      "Ġ18": 810,
      "ãĤ¹ãĤ¿": 811,
      "ĠâĢĵ": 812,
      "Ġte": 813,
      "ãĥ³ãĥĶ": 814,
      "æ²": 815,
      "çľĮ": 816,
      "ãĤ¹ãĥĪ": 817,
      "ĠJeux": 818,
      "Ġvon": 819,
      "çī©": 820,
      "ĠãĤ¢": 821,
      "ĠØ¯Ø±": 822,
      "Ġolympiques": 823,
      "ä¸Ĭ": 824,
      "io": 825,
      "åł´": 826,
      "ide": 827,
      "éģĵ": 828,
      "ãĥĥãĥĪ": 829,
      "iz": 830,
      "Ġthat": 831,
      "æĪ¦": 832,
      "ãģĵãģ¨": 833,
      "ĠEn": 834,
      "ore": 835,
      "åĨ": 836,
      "out": 837,
      "«ĺ": 838,
      "éĸ¢": 839,
      "ite": 840,
      "uc": 841,
      "we": 842,
      "æĬ": 843,
      "ÙĤ": 844,
      "Ġhe": 845,
      "Ġ\"": 846,
      "pt": 847,
      "ãĥ³ãĤ°": 848,
      "ç·ļ": 849,
      "ãģ§ãģĤãĤĭ": 850,
      "éł": 851,
      "ãĥĳ": 852,
      "éļ": 853,
      "åĽ£": 854,
      "ĠTh": 855,
      "10": 856,
      "åľ°": 857,
      "ces": 858,
      "ĠAr": 859,
      "edia": 860,
      "int": 861,
      "ãĥªãĥ³ãĥĶ": 862,
      "ke": 863,
      "ç¤¾": 864,
      "ĠØª": 865,
      "pr": 866,
      "ction": 867,
      "ãĥªãĥ³ãĥĶãĥĥãĤ¯": 868,
      "ary": 869,
      "Ã©e": 870,
      "ĠDe": 871,
      "éĩİ": 872,
      "ps": 873,
      "ĠChamp": 874,
      "æ¨": 875,
      "Ġ197": 876,
      "Ġ202": 877,
      "pl": 878,
      "åī": 879,
      "ry": 880,
      "langu": 881,
      "ement": 882,
      "Ġ5": 883,
      "ident": 884,
      "erm": 885,
      "ç¾": 886,
      "å¿": 887,
      "èĢħ": 888,
      "ãĥ¼ãĥĪ": 889,
      "ĠSh": 890,
      "ĠÛ": 891,
      "ath": 892,
      "Ġein": 893,
      "Ġit": 894,
      "Ø²": 895,
      "ãĥĢ": 896,
      "ks": 897,
      "ÃŁ": 898,
      "ÛĮÚ©": 899,
      "ost": 900,
      "orm": 901,
      "ind": 902,
      "Ġ:": 903,
      "ight": 904,
      "ortail": 905,
      "ä¹": 906,
      "ãĥĻ": 907,
      "ĠSe": 908,
      "ç©": 909,
      "),": 910,
      "èªŀ": 911,
      "ical": 912,
      "ãĤĦ": 913,
      "å£": 914,
      "ase": 915,
      "ai": 916,
      "ummer": 917,
      ").": 918,
      "ãĤ¡": 919,
      "urop": 920,
      "æĢ": 921,
      "ãĥį": 922,
      "iss": 923,
      "è²": 924,
      "çĻº": 925,
      "çĶº": 926,
      "è³": 927,
      "oun": 928,
      "å±±": 929,
      "ÙĩØ§ÛĮ": 930,
      "åĲį": 931,
      "ç«ĭ": 932,
      "Ġ196": 933,
      "ame": 934,
      "Ġals": 935,
      "ãģ¡": 936,
      "æł¡": 937,
      "ķ·": 938,
      "èĩ": 939,
      "hr": 940,
      "cl": 941,
      "ert": 942,
      "eb": 943,
      "olog": 944,
      "ations": 945,
      "æ¥Ń": 946,
      "ãĥľ": 947,
      "æ´": 948,
      "æĻĤ": 949,
      "çĽ®": 950,
      "æ¸": 951,
      "ãģĪ": 952,
      "oh": 953,
      "ric": 954,
      "äº¬": 955,
      "æĪĲ": 956,
      "ãĤı": 957,
      "åĳ": 958,
      "éĢ£": 959,
      "ĠSch": 960,
      "ĠØ³": 961,
      "ys": 962,
      "ult": 963,
      "ĠSummer": 964,
      "ipedia": 965,
      "ãĥ¢": 966,
      "çĶ¨": 967,
      "fer": 968,
      "language": 969,
      "Ġden": 970,
      "ãģ©": 971,
      "è©": 972,
      "Ġcomp": 973,
      "ä¸ĸ": 974,
      "å·Ŀ": 975,
      "çļ": 976,
      "Ġ2012": 977,
      "uss": 978,
      "é«ĺ": 979,
      "å³": 980,
      "èĪ": 981,
      "ãģķãĤĮãģŁ": 982,
      "åŁ": 983,
      "ins": 984,
      "ãĤ»": 985,
      "Ã©tÃ©": 986,
      "ied": 987,
      "ĠPro": 988,
      "eil": 989,
      "Ł³": 990,
      "Ġav": 991,
      "ĴĮ": 992,
      "ese": 993,
      "ĠOlympische": 994,
      "hip": 995,
      "ãĥªãĥ³ãĥĶãĥĥãĤ¯ãģ®": 996,
      "æ©": 997,
      "ç¥": 998,
      "ru": 999,
      "12": 1000,
      "//": 1001,
      "ign": 1002,
      "åĪĨ": 1003,
      "æīĢ": 1004,
      "æĿ±": 1005,
      "ãĥı": 1006,
      "ĠÂ": 1007,
      "://": 1008,
      "ãĥ¼ãĤº": 1009,
      "åĪ¥": 1010,
      "ÛĮÙĨ": 1011,
      "orld": 1012,
      "ãģ¨ãģĹãģ¦": 1013,
      "è¨ĺäºĭ": 1014,
      "ãĥ³ãĥĪ": 1015,
      "éĸĵ": 1016,
      "Ġim": 1017,
      "ĠæĿ": 1018,
      "ãģ¿": 1019,
      "ãĥ¼ãĤ¹": 1020,
      "Ġhtt": 1021,
      "ãģ§ãģ¯": 1022,
      "Ġer": 1023,
      "ated": 1024,
      "ilm": 1025,
      "ãģł": 1026,
      "82": 1027,
      "Ġor": 1028,
      "az": 1029,
      "ĠÙĨ": 1030,
      "Ġpr": 1031,
      "ï¼ļ": 1032,
      "ãĥ¯": 1033,
      "ĠHe": 1034,
      "ÙĪØ±": 1035,
      "Ġhttps": 1036,
      "Ã¼r": 1037,
      "è»Ĭ": 1038,
      "ãĤ±": 1039,
      "Ġ9": 1040,
      "ĠFran": 1041,
      "ĠØ´": 1042,
      "æĸĩ": 1043,
      "å³¶": 1044,
      "Ġ6": 1045,
      "éĸĭ": 1046,
      "wiki": 1047,
      "wikipedia": 1048,
      "Ġ{": 1049,
      "åĴĮ": 1050,
      "ace": 1051,
      "å®¶": 1052,
      "ãģ«ãĤĪ": 1053,
      "ãĤ¬": 1054,
      "å¤§åŃ¦": 1055,
      "ale": 1056,
      "ĠØ¢": 1057,
      "18": 1058,
      "piele": 1059,
      "use": 1060,
      "éķ·": 1061,
      "ze": 1062,
      "ãĥ¼ãĥī": 1063,
      "ĠPar": 1064,
      "oy": 1065,
      "ors": 1066,
      "çĶ»": 1067,
      "Ġdans": 1068,
      "ãĥĿ": 1069,
      "è£": 1070,
      "éĿ": 1071,
      "ĠArticles": 1072,
      "200": 1073,
      "Ø³Øª": 1074,
      "Ġfootball": 1075,
      "enn": 1076,
      "ĠLa": 1077,
      "Ġli": 1078,
      "ons": 1079,
      "ition": 1080,
      "ile": 1081,
      "ãĥĦ": 1082,
      "Ġsur": 1083,
      "ãģķãĤĮãģ¦ãģĦãĤĭ": 1084,
      "åİ": 1085,
      "Ġune": 1086,
      "ãĥİ": 1087,
      "çİ": 1088,
      "Ġare": 1089,
      "ãĥ´": 1090,
      "è¡¨": 1091,
      "åĭķ": 1092,
      "īĦ": 1093,
      "ates": 1094,
      "ubl": 1095,
      "ãĤ½": 1096,
      "11": 1097,
      "ä½ĵ": 1098,
      "ç¬¬": 1099,
      "gen": 1100,
      "Ġcl": 1101,
      "åĲĮ": 1102,
      "ss": 1103,
      "ĠÃ©": 1104,
      "Ġhis": 1105,
      "ãĥĨãĤ£": 1106,
      "ina": 1107,
      "ice": 1108,
      "Ġro": 1109,
      "ĠdÃ©": 1110,
      "ãĤº": 1111,
      "åı·": 1112,
      "ĠBe": 1113,
      "du": 1114,
      "tem": 1115,
      "ivers": 1116,
      "Ġ195": 1117,
      "é§": 1118,
      "Ġcont": 1119,
      "ve": 1120,
      "ãģªãģĦ": 1121,
      "rid": 1122,
      "Ġ7": 1123,
      "erspiele": 1124,
      "ãĥ¼ãĥł": 1125,
      "Ġ2008": 1126,
      "ĠÙģ": 1127,
      "ack": 1128,
      "ĠØ¬": 1129,
      "ãģ£ãģ¦": 1130,
      "ãĥ©ãĤ¤": 1131,
      "å¹³": 1132,
      "Ġlanguage": 1133,
      "æĴ": 1134,
      "åĽŀ": 1135,
      "ĠæĹ¥æľ¬": 1136,
      "ãģ«ãģ¯": 1137,
      "ĠliÃ©s": 1138,
      "iÃ¨": 1139,
      "Ġi": 1140,
      "Articles": 1141,
      "èĩª": 1142,
      "oll": 1143,
      "ĠØ±Ø¯Ùĩ": 1144,
      "ade": 1145,
      "ox": 1146,
      "Portail": 1147,
      "gl": 1148,
      "æĮĩ": 1149,
      "çŃ": 1150,
      "Ø§Ùħ": 1151,
      "çļĦ": 1152,
      "ĠCl": 1153,
      "ise": 1154,
      "ĠWorld": 1155,
      "ren": 1156,
      "æĸ°": 1157,
      "Ġpart": 1158,
      "âĢĻ": 1159,
      "åħ¬": 1160,
      "ãĥªãĤ¢": 1161,
      "ischen": 1162,
      "éīĦ": 1163,
      "ä¸»": 1164,
      "éĢļ": 1165,
      "ä¸ī": 1166,
      "ãĤīãĤĮ": 1167,
      "one": 1168,
      "æ±": 1169,
      "ĠSp": 1170,
      "å¾Į": 1171,
      "ilis": 1172,
      "Ġmit": 1173,
      "éģ¸æīĭåĽ£": 1174,
      "ited": 1175,
      "ory": 1176,
      "çĽ¸": 1177,
      "åŃ¦æł¡": 1178,
      "ĠIt": 1179,
      "åĮĸ": 1180,
      "uch": 1181,
      "¥¿": 1182,
      "ome": 1183,
      "ä¸ĭ": 1184,
      "ÙĦÛĮ": 1185,
      "Ġ====": 1186,
      "çĲĨ": 1187,
      "ats": 1188,
      "Ġå¤§": 1189,
      "ork": 1190,
      "ence": 1191,
      "ars": 1192,
      "Ġsp": 1193,
      "ck": 1194,
      "ague": 1195,
      "Ġne": 1196,
      "raph": 1197,
      "±Û": 1198,
      "Ġsh": 1199,
      "ãģ¨ãģª": 1200,
      "æ³ķ": 1201,
      "å·ŀ": 1202,
      "den": 1203,
      "ance": 1204,
      "icht": 1205,
      "ÙĪÙĨ": 1206,
      "att": 1207,
      "Ġut": 1208,
      "ãĥ¼ãĤ¸": 1209,
      "ãĥªãĥ¼": 1210,
      "neh": 1211,
      "17": 1212,
      "ãĥļ": 1213,
      "act": 1214,
      "èī": 1215,
      "ĠChampions": 1216,
      "ãģ¦ãģĦãģŁ": 1217,
      "let": 1218,
      "pp": 1219,
      "gr": 1220,
      "Ġy": 1221,
      "Ġ2017": 1222,
      "æķĻ": 1223,
      "Ġpour": 1224,
      "Ġ2014": 1225,
      "Ġcomm": 1226,
      "ĠNew": 1227,
      "æĸ¹": 1228,
      "kt": 1229,
      "Ġra": 1230,
      "å²": 1231,
      "æİ": 1232,
      "èº": 1233,
      "ãĤ®": 1234,
      "way": 1235,
      "ĠQ": 1236,
      "ä¾": 1237,
      "ĠÃī": 1238,
      "itÃ©": 1239,
      "åħ¨": 1240,
      "Ġar": 1241,
      "é¡": 1242,
      "orn": 1243,
      "erv": 1244,
      "elle": 1245,
      "è¿": 1246,
      "15": 1247,
      "Ġ8": 1248,
      "ĠTe": 1249,
      "Ġtra": 1250,
      "ount": 1251,
      "ĠDie": 1252,
      "å¥³": 1253,
      "Ġutilis": 1254,
      "æĢ§": 1255,
      "ĠÙ¾": 1256,
      "ater": 1257,
      "Ġam": 1258,
      "ĠX": 1259,
      "ĠEurop": 1260,
      "Ġ194": 1261,
      "der": 1262,
      "Ø§Ø²": 1263,
      "ãĥĩãĤ£": 1264,
      "ĠGr": 1265,
      "Ø§Ø¯": 1266,
      "æ¼": 1267,
      "ĠãĤª": 1268,
      "æµ·": 1269,
      "ãģĽ": 1270,
      "èŃĺ": 1271,
      "çµĮ": 1272,
      "identif": 1273,
      "ãĤ¸ãĥ£": 1274,
      "å¼ı": 1275,
      "Ġâ": 1276,
      "ãĤ©": 1277,
      "Ġdem": 1278,
      "åĨħ": 1279,
      "è¨Ń": 1280,
      "ect": 1281,
      "æĬĢ": 1282,
      "åīį": 1283,
      "cri": 1284,
      "åº¦": 1285,
      "que": 1286,
      "Ã©d": 1287,
      "å½¢": 1288,
      "Ø¬": 1289,
      "é¤": 1290,
      "ç«¶": 1291,
      "be": 1292,
      "ican": 1293,
      "å§": 1294,
      "ata": 1295,
      "æŀ": 1296,
      "ĠIs": 1297,
      "Ġeine": 1298,
      "ãĥ§ãĥ³": 1299,
      "ãģĹãģ¦ãģĦãĤĭ": 1300,
      "åİŁ": 1301,
      "ternational": 1302,
      "æĿĳ": 1303,
      "Ġwur": 1304,
      "Ġab": 1305,
      "é§ħ": 1306,
      "æĽ¸": 1307,
      "rans": 1308,
      "ron": 1309,
      "iel": 1310,
      "Û°": 1311,
      "ĠChampionship": 1312,
      "ãĥ³ãĤ¹": 1313,
      "per": 1314,
      "ix": 1315,
      "ral": 1316,
      "ium": 1317,
      "yle": 1318,
      "ĠKate": 1319,
      "Ġ17": 1320,
      "ãĥ³ãĤ¿": 1321,
      "Ø§Ùĩ": 1322,
      "ãĥ¼ãĤ¯": 1323,
      "16": 1324,
      "èº«": 1325,
      "urs": 1326,
      "ograph": 1327,
      "nehmer": 1328,
      "ason": 1329,
      "åĵ¡": 1330,
      "ĠJap": 1331,
      "åĮº": 1332,
      "åħ¥": 1333,
      "ãģĺ": 1334,
      "irst": 1335,
      "ime": 1336,
      "onn": 1337,
      "æĦ": 1338,
      "ism": 1339,
      "Ġnot": 1340,
      "ĠrÃ©": 1341,
      "çķĮ": 1342,
      "Ġ2015": 1343,
      "ĠKategorie": 1344,
      "Ġ10": 1345,
      "çŁ": 1346,
      "pen": 1347,
      "ãĥªãĤ«": 1348,
      "Ø¹": 1349,
      "Ġãĥķ": 1350,
      "cc": 1351,
      "çł": 1352,
      "Ġauf": 1353,
      "eilnehmer": 1354,
      "ket": 1355,
      "lich": 1356,
      "æ©Ł": 1357,
      "ãģŁãĤģ": 1358,
      "ĠØ§Ø³": 1359,
      "Ġent": 1360,
      "ĠGe": 1361,
      "Ġwhich": 1362,
      "å°ı": 1363,
      "to": 1364,
      "SB": 1365,
      "ĠPh": 1366,
      "Ġwere": 1367,
      "any": 1368,
      "ãĥ³ãĤ¯": 1369,
      "Ø§Øª": 1370,
      "åĮĹ": 1371,
      "ous": 1372,
      "Ġç¬¬": 1373,
      "ionn": 1374,
      "Ġteam": 1375,
      "yn": 1376,
      "ãģªãģ©": 1377,
      "çı": 1378,
      "æľ¨": 1379,
      "Ã¤n": 1380,
      "çĲĥ": 1381,
      "Ġ193": 1382,
      "éĥ½": 1383,
      "ĠâĢ": 1384,
      "æ°ĳ": 1385,
      "ç¨": 1386,
      "Ġutilisant": 1387,
      "aw": 1388,
      "Ø§Ø¨": 1389,
      "aft": 1390,
      "ave": 1391,
      "une": 1392,
      "æ²»": 1393,
      "ç¶": 1394,
      "Teilnehmer": 1395,
      "ãĥĽ": 1396,
      "é¦": 1397,
      "form": 1398,
      "ler": 1399,
      "Ġplay": 1400,
      "éĺ": 1401,
      "ĠList": 1402,
      "æ¨©": 1403,
      "Ġ2018": 1404,
      "ÙĨØ¯": 1405,
      "èŃĺåĪ¥": 1406,
      "åĵģ": 1407,
      "inal": 1408,
      "ĠÙĩ": 1409,
      "iers": 1410,
      "ger": 1411,
      "13": 1412,
      "lin": 1413,
      "èŃĺåĪ¥åŃĲ": 1414,
      "ĠLeague": 1415,
      "Page": 1416,
      "ãģ°": 1417,
      "omb": 1418,
      "oul": 1419,
      "æľĢ": 1420,
      "ded": 1421,
      "old": 1422,
      "ica": 1423,
      "outh": 1424,
      "ames": 1425,
      "able": 1426,
      "Ġou": 1427,
      "SBN": 1428,
      "ĠæĿ±": 1429,
      "ton": 1430,
      "Ġzu": 1431,
      "èŃ°": 1432,
      "14": 1433,
      "Ø§Ø³": 1434,
      "ait": 1435,
      "Ġåħ": 1436,
      "ØĮ": 1437,
      "ä½į": 1438,
      "Ġad": 1439,
      "æĮĩå®ļ": 1440,
      "Ġalso": 1441,
      "ose": 1442,
      "è«": 1443,
      "Ġ{\\": 1444,
      "ley": 1445,
      "æķ°": 1446,
      "ĠSomm": 1447,
      "Ø§ÙĨÛĮ": 1448,
      "led": 1449,
      "Ġpre": 1450,
      "23": 1451,
      "èĭ": 1452,
      "æĺİ": 1453,
      "ĠåĽ": 1454,
      "ãĥĶ": 1455,
      "ĠCar": 1456,
      "ĠUnited": 1457,
      "yl": 1458,
      "åĦ": 1459,
      "ĠPl": 1460,
      "iste": 1461,
      "Ġver": 1462,
      "éĢģ": 1463,
      "her": 1464,
      "åĬĽ": 1465,
      "é¤¨": 1466,
      "esch": 1467,
      "Ġist": 1468,
      "ual": 1469,
      "ision": 1470,
      "ner": 1471,
      "ãĥĥãĥĹ": 1472,
      "ĠJapan": 1473,
      "Ġrel": 1474,
      "vent": 1475,
      "ĠMe": 1476,
      "ĠAmer": 1477,
      "ãĥ¬ãĥĵ": 1478,
      "ÛĮÙĦ": 1479,
      "ute": 1480,
      "çĤ": 1481,
      "ĠMa": 1482,
      "ĠØ§ÛĮ": 1483,
      "äºĮ": 1484,
      "Ġpe": 1485,
      "ĠGu": 1486,
      "èģ": 1487,
      "ç¥ŀ": 1488,
      "ĠFl": 1489,
      "ĠUnivers": 1490,
      "Ġnational": 1491,
      "è»į": 1492,
      "ĠSommerspiele": 1493,
      "dis": 1494,
      "Ġus": 1495,
      "ient": 1496,
      "çı¾": 1497,
      "ree": 1498,
      "lect": 1499,
      "ĠfÃ¼r": 1500,
      "play": 1501,
      "own": 1502,
      "èĥ": 1503,
      "åħ±": 1504,
      "å¯¾": 1505,
      "ts": 1506,
      "åĤ": 1507,
      "ĠAm": 1508,
      "ki": 1509,
      "22": 1510,
      "éĩĳ": 1511,
      "åĢ": 1512,
      "è¦ĭ": 1513,
      "omen": 1514,
      "ĠEr": 1515,
      "af": 1516,
      "ĠAs": 1517,
      "inter": 1518,
      "Ġ2010": 1519,
      "ĠBr": 1520,
      "ĠØ¨Ùĩ": 1521,
      "ç©º": 1522,
      "çµĦ": 1523,
      "è¾": 1524,
      "Ġart": 1525,
      "vel": 1526,
      "man": 1527,
      "ãĤ´": 1528,
      "ĠmÃ©": 1529,
      "Ã¡": 1530,
      "åĪĿ": 1531,
      "Ġdur": 1532,
      "ãģ³": 1533,
      "Ġdas": 1534,
      "199": 1535,
      "è¼": 1536,
      "ĠNational": 1537,
      "24": 1538,
      "æĶ¾": 1539,
      "ãĥ¼ãĤ°": 1540,
      "ä¸ĸçķĮ": 1541,
      "ĠEx": 1542,
      "ãĥ¼ãĤ¿": 1543,
      "ode": 1544,
      "Ġwar": 1545,
      "roup": 1546,
      "ãĤªãĥªãĥ³ãĥĶãĥĥãĤ¯ãģ®": 1547,
      "wo": 1548,
      "Ġge": 1549,
      "Ġavec": 1550,
      "ãĥ¼ãĤ·": 1551,
      "æĮĩå®ļãģķãĤĮãģ¦ãģĦãĤĭ": 1552,
      "000": 1553,
      "ãģ¸": 1554,
      "Ġseason": 1555,
      "ãĤ¶": 1556,
      "ãĥķãĤ¡": 1557,
      "èŃĺåĪ¥åŃĲãģĮ": 1558,
      "ound": 1559,
      "ĠCon": 1560,
      "ĠØ²": 1561,
      "ĠPr": 1562,
      "ÙĪØ¯": 1563,
      "Ã©n": 1564,
      "21": 1565,
      "èĤ": 1566,
      "ãģ«ãģª": 1567,
      "çŃī": 1568,
      "äºķ": 1569,
      "Ġãĥŀ": 1570,
      "ãĤĪãģĨ": 1571,
      "æĮĩå®ļãģķãĤĮãģ¦ãģĦãĤĭè¨ĺäºĭ": 1572,
      "èŃĺåĪ¥åŃĲãģĮæĮĩå®ļãģķãĤĮãģ¦ãģĦãĤĭè¨ĺäºĭ": 1573,
      "ick": 1574,
      "Ã©es": 1575,
      "æ¬": 1576,
      "25": 1577,
      "ãģ¨ãģĦ": 1578,
      "Ġå®": 1579,
      "Ġres": 1580,
      "åħĥ": 1581,
      "çķª": 1582,
      "Ã©m": 1583,
      "ãĥĥãĤ«": 1584,
      "åľ¨": 1585,
      "Ø³ÛĮ": 1586,
      "ash": 1587,
      "å®Ł": 1588,
      "ĠWik": 1589,
      "cript": 1590,
      "çİĭ": 1591,
      "Ġfirst": 1592,
      "emb": 1593,
      "éĽ»": 1594,
      "ther": 1595,
      "Ġqui": 1596,
      "åĭĿ": 1597,
      "ãĥ¤": 1598,
      "æı": 1599,
      "Ġwurde": 1600,
      "æ®": 1601,
      "iver": 1602,
      "ç½": 1603,
      "iet": 1604,
      "æ°´": 1605,
      "orth": 1606,
      "ille": 1607,
      "och": 1608,
      "å±ĭ": 1609,
      "è¥¿": 1610,
      "aire": 1611,
      "Ĺ¤": 1612,
      "aut": 1613,
      "ĠEl": 1614,
      "ĠJoh": 1615,
      "amm": 1616,
      "ĠãĢİ": 1617,
      "ãĢĢ": 1618,
      "æľŁ": 1619,
      "è·": 1620,
      "Ġaus": 1621,
      "äººçī©": 1622,
      "Ġsc": 1623,
      "ä»¥": 1624,
      "ĠInd": 1625,
      "ãģ§ãģĤ": 1626,
      "Ġall": 1627,
      "è¦ģ": 1628,
      "ĠãĤ¸": 1629,
      "ward": 1630,
      "åı²": 1631,
      "ĠAll": 1632,
      "ild": 1633,
      "itt": 1634,
      "its": 1635,
      "style": 1636,
      "ãĥ¡ãĥªãĤ«": 1637,
      "ãģĦãģ¦": 1638,
      "}}": 1639,
      "ãĥĹãĥŃ": 1640,
      "Ġbas": 1641,
      "urn": 1642,
      "Ġmon": 1643,
      "ĠãĤ¤": 1644,
      "ç¾İ": 1645,
      "ĠØ§Ø²": 1646,
      "ä½¿": 1647,
      "èĬ": 1648,
      "ĠãĤ¹": 1649,
      "30": 1650,
      "ĠVer": 1651,
      "ĠOn": 1652,
      "oint": 1653,
      "Ø±ÛĮ": 1654,
      "ĠBl": 1655,
      "èĳ": 1656,
      "Ġ15": 1657,
      "ict": 1658,
      "ĠSc": 1659,
      "éħ": 1660,
      "ãĥķãĤ£": 1661,
      "ĠåĽ½": 1662,
      "ene": 1663,
      "ãĤ¢ãĥ«": 1664,
      "display": 1665,
      "displaystyle": 1666,
      "Ġque": 1667,
      "Ġrec": 1668,
      "ç«¶æĬĢ": 1669,
      "ĠAb": 1670,
      "åĦª": 1671,
      "åĸ": 1672,
      "é£": 1673,
      "å»": 1674,
      "Ġä¸Ń": 1675,
      "Ø®": 1676,
      "ĠIl": 1677,
      "ĠComm": 1678,
      "æĴ²": 1679,
      "éĻ¢": 1680,
      "ãģĿãģ®": 1681,
      "Ġhas": 1682,
      "æ§": 1683,
      "ãģķãĤĮãĤĭ": 1684,
      "ĠOr": 1685,
      "Ãª": 1686,
      "Ã¨s": 1687,
      "æ¼Ķ": 1688,
      "å½ĵ": 1689,
      "ĠãĤµ": 1690,
      "oss": 1691,
      "ĠRo": 1692,
      "ĠÂ«": 1693,
      "æ¥½": 1694,
      "çŁ¥": 1695,
      "rie": 1696,
      "çĶ·": 1697,
      "Ġ2013": 1698,
      "ãĤ¤ãĥ³": 1699,
      "ãĥ¼ãĥĹ": 1700,
      "åģ": 1701,
      "Ġdis": 1702,
      "ĠNe": 1703,
      "æĶ¿": 1704,
      "ois": 1705,
      "åĭĻ": 1706,
      "ãģ¹": 1707,
      "elt": 1708,
      "çĽ¸æĴ²": 1709,
      "fter": 1710,
      "Ġ16": 1711,
      "fl": 1712,
      "Ġå°": 1713,
      "Ġme": 1714,
      "éĥ¡": 1715,
      "ages": 1716,
      "å¤ļ": 1717,
      "æº": 1718,
      "æĭ": 1719,
      "ings": 1720,
      "å¤§ä¼ļ": 1721,
      "ridien": 1722,
      "åı¤": 1723,
      "gh": 1724,
      "èµ": 1725,
      "II": 1726,
      "ĠEurope": 1727,
      "ific": 1728,
      "ĠÛ±Û": 1729,
      "ĠCup": 1730,
      "Ġhad": 1731,
      "Ġbut": 1732,
      "bert": 1733,
      "ĠmÃ©ridien": 1734,
      "ole": 1735,
      "ystem": 1736,
      "ĠPri": 1737,
      "éļĽ": 1738,
      "ock": 1739,
      "è§": 1740,
      "éĥİ": 1741,
      "ÙĪÛĮ": 1742,
      "æĽ²": 1743,
      "Ġcons": 1744,
      "ãĤĤãģ®": 1745,
      "ett": 1746,
      "/%": 1747,
      "Un": 1748,
      "çĦ": 1749,
      "ĠØ§Ø³Øª": 1750,
      "ĠÙħÛĮ": 1751,
      "ãģĵãģ®": 1752,
      "ç§ĳ": 1753,
      "ãĤ²": 1754,
      "ãģļ": 1755,
      "ĠÚ¯": 1756,
      "ãģ¨ãģĦãģĨ": 1757,
      "ãĥ«ãĥĪ": 1758,
      "Ġpol": 1759,
      "ences": 1760,
      "å¹´ãģ«": 1761,
      "air": 1762,
      "ven": 1763,
      "ãĤ¤ãĥĪ": 1764,
      "78": 1765,
      "50": 1766,
      "Ġwe": 1767,
      "aus": 1768,
      "Ġ2011": 1769,
      "Ġåı": 1770,
      "Ġits": 1771,
      "Ġper": 1772,
      "æŃ£": 1773,
      "ĠInternational": 1774,
      "ãĢľ": 1775,
      "æŁ": 1776,
      "ĠãĤ«": 1777,
      "ĠFrance": 1778,
      "inn": 1779,
      "éŁ³": 1780,
      "Ġag": 1781,
      "Ø±Ø¯": 1782,
      "ĠAir": 1783,
      "å£«": 1784,
      "Ġ2019": 1785,
      "éģ¸æīĭæ¨©": 1786,
      "ĠCol": 1787,
      "als": 1788,
      "ĠØ®": 1789,
      "ãĥĨãĥ¬ãĥĵ": 1790,
      "Ġåį": 1791,
      "ãĥªãĥ¼ãĤ°": 1792,
      "ersch": 1793,
      "å´": 1794,
      "åĬł": 1795,
      "Ġsich": 1796,
      "amb": 1797,
      "Ġtheir": 1798,
      "Ġ2020": 1799,
      "ä¿¡": 1800,
      "ãģ¾ãģ§": 1801,
      "Ġplus": 1802,
      "ae": 1803,
      "28": 1804,
      "ç³": 1805,
      "ÚĨ": 1806,
      "ener": 1807,
      "oci": 1808,
      "éłħ": 1809,
      "ays": 1810,
      "ĠWinter": 1811,
      "ird": 1812,
      "ĠãĤ¦": 1813,
      "ank": 1814,
      "åĪ¶": 1815,
      "è¦§": 1816,
      "Ġidentif": 1817,
      "Ġfilm": 1818,
      "ĠBar": 1819,
      "ØŃ": 1820,
      "hem": 1821,
      "ĠåĲ": 1822,
      "ãĤ¹ãĤ¿ãĥĸ": 1823,
      "ym": 1824,
      "å²¡": 1825,
      "çī¹": 1826,
      "sp": 1827,
      "alt": 1828,
      "Ġson": 1829,
      "Ġæĸ": 1830,
      "Ã§": 1831,
      "rat": 1832,
      "ĠãĤ¨": 1833,
      "cy": 1834,
      "ãĥ³ãĥĢ": 1835,
      "å¤ĸ": 1836,
      "Ġil": 1837,
      "æ¯": 1838,
      "éĿ¢": 1839,
      "ĠChampionn": 1840,
      "27": 1841,
      "ãģ¾ãģŁ": 1842,
      "åįĹ": 1843,
      "ugh": 1844,
      "çīĪ": 1845,
      "publ": 1846,
      "ook": 1847,
      "ãĥªãĤ¹": 1848,
      "æĥ": 1849,
      "ãĥ¼ãĥ³": 1850,
      "ark": 1851,
      "iam": 1852,
      "ĠãĤ·": 1853,
      "ä¿Ŀ": 1854,
      "cription": 1855,
      "aint": 1856,
      "èĭ±": 1857,
      "ĠTour": 1858,
      "Ã¼n": 1859,
      "åıĸ": 1860,
      "åŀ": 1861,
      "rist": 1862,
      "ĠAd": 1863,
      "ople": 1864,
      "æ°Ĺ": 1865,
      "ĠStates": 1866,
      "æľī": 1867,
      "Ã©c": 1868,
      "å¤ª": 1869,
      "ĠÂ»": 1870,
      "ĠSer": 1871,
      "å¡": 1872,
      "eth": 1873,
      "iter": 1874,
      "ĠJohn": 1875,
      "26": 1876,
      "ãĤ·ãĥ¥": 1877,
      "_{": 1878,
      "Øµ": 1879,
      "èĹ¤": 1880,
      "ĠISBN": 1881,
      "ãĥĴ": 1882,
      "ãģ«ãģĬ": 1883,
      "ä»£è¡¨": 1884,
      "åı£": 1885,
      "Ġdif": 1886,
      "ãĥĭãĤ¢": 1887,
      "å£²": 1888,
      "çĶ£": 1889,
      "æĶ¾éĢģ": 1890,
      "ĠMan": 1891,
      "Ġ2009": 1892,
      "¦ı": 1893,
      "è¡ĵ": 1894,
      "uis": 1895,
      "ood": 1896,
      "Ġoff": 1897,
      "ĠAmerican": 1898,
      "arch": 1899,
      "Ġman": 1900,
      "éĸ¢éĢ£": 1901,
      "è³ŀ": 1902,
      "ĠØ§": 1903,
      "Ġhave": 1904,
      "oth": 1905,
      "èĥ½": 1906,
      "ince": 1907,
      "ĠMen": 1908,
      "ution": 1909,
      "å·¥": 1910,
      "ç¾©": 1911,
      "ĠØ§ÙĦ": 1912,
      "uk": 1913,
      "inist": 1914,
      "schaft": 1915,
      "éĽĨ": 1916,
      "oi": 1917,
      "éĮ": 1918,
      "çłĶ": 1919,
      "ãĤıãĤĮ": 1920,
      "çĿ": 1921,
      "ben": 1922,
      "ãĥľãĥ¼ãĥ«": 1923,
      "gel": 1924,
      "ĠÛ²": 1925,
      "è©±": 1926,
      "èı": 1927,
      "ĠãĥĲ": 1928,
      "ĠLes": 1929,
      "BA": 1930,
      "ĠAust": 1931,
      "ll": 1932,
      "ĠChampionships": 1933,
      "ipe": 1934,
      "ĠCan": 1935,
      "åı°": 1936,
      "ĠUniversity": 1937,
      "inc": 1938,
      "ĠØ¨Ø±": 1939,
      "ãĥĥãĥī": 1940,
      "ould": 1941,
      "ĠJah": 1942,
      "çĤ¹": 1943,
      "rticle": 1944,
      "row": 1945,
      "ç·¨": 1946,
      "ĠMon": 1947,
      "åıĹ": 1948,
      "æľĿ": 1949,
      "ãĥĥãĤ«ãĥ¼": 1950,
      "ungen": 1951,
      "Ġaut": 1952,
      "Ġher": 1953,
      "Ġone": 1954,
      "tre": 1955,
      "çµĲ": 1956,
      "ĠFor": 1957,
      "Ġ0": 1958,
      "éłħçĽ®": 1959,
      "ced": 1960,
      "è¶": 1961,
      "my": 1962,
      "ĠMus": 1963,
      "aj": 1964,
      "éģĭ": 1965,
      "Ġidentifiers": 1966,
      "ĠCent": 1967,
      "Ġsec": 1968,
      "ake": 1969,
      "è¨Ģ": 1970,
      "ool": 1971,
      "ç¯": 1972,
      "åķ": 1973,
      "Ġ12": 1974,
      "ÙĪØª": 1975,
      "Ġsch": 1976,
      "Ġes": 1977,
      "łçĶ»": 1978,
      "ç³»": 1979,
      "ãĥ³ãĥĨ": 1980,
      "Ġph": 1981,
      "°·": 1982,
      "ä¸Ģè¦§": 1983,
      "urg": 1984,
      "æ¬¡": 1985,
      "ãĥ¼ãĥŀ": 1986,
      "Ġ2006": 1987,
      "ating": 1988,
      "ãĤ¯ãĥ©": 1989,
      "ines": 1990,
      "ÙĪÙĦ": 1991,
      "èĤ²": 1992,
      "ç©¶": 1993,
      "éĩį": 1994,
      "stit": 1995,
      "å´İ": 1996,
      "ĠĠ": 1997,
      "Ġ14": 1998,
      "Article": 1999,
      "Ġdescription": 2000,
      "åĩºèº«": 2001,
      "Ã©l": 2002,
      "ĠWe": 2003,
      "ÃŃ": 2004,
      "son": 2005,
      "ĠSouth": 2006,
      "ĠRuss": 2007,
      "ax": 2008,
      "ãĥ³ãĤ¸": 2009,
      "atch": 2010,
      "åľĴ": 2011,
      "ãĥ³ãĤº": 2012,
      "ãģ£ãģ¦ãģĦãĤĭ": 2013,
      "Ġbei": 2014,
      "Ġso": 2015,
      "ĠJan": 2016,
      "ä¸į": 2017,
      "Ġser": 2018,
      "Ġapp": 2019,
      "Ġ2022": 2020,
      "Ġtrans": 2021,
      "ĠWar": 2022,
      "ĠAnd": 2023,
      "ãģ®ãĤ¹ãĤ¿ãĥĸ": 2024,
      "ents": 2025,
      "ãĥģãĥ£": 2026,
      "ari": 2027,
      "eng": 2028,
      "éĩİçĲĥ": 2029,
      "ç½®": 2030,
      "lex": 2031,
      "atur": 2032,
      "åŀĭ": 2033,
      "ãģĳãĤĭ": 2034,
      "åħ¸": 2035,
      "29": 2036,
      "AF": 2037,
      "80": 2038,
      "ãĥªãĥ³ãĤ¯": 2039,
      "idata": 2040,
      "Ġwho": 2041,
      "ç®": 2042,
      "ology": 2043,
      "Ġtwo": 2044,
      "ãĥ¼ãĥ©": 2045,
      "rict": 2046,
      "Ġ190": 2047,
      "ĠåĮ": 2048,
      "äº¤": 2049,
      "æĿ¥": 2050,
      "ĠØ§ÙĨ": 2051,
      "Ġãĥ©": 2052,
      "å±ŀ": 2053,
      "aseball": 2054,
      "ĠWikidata": 2055,
      "Ġsport": 2056,
      "ãĤį": 2057,
      "Ġå°ı": 2058,
      "men": 2059,
      "ĠGerm": 2060,
      "Ġimp": 2061,
      "åĥ": 2062,
      "çłĶç©¶": 2063,
      "co": 2064,
      "Ġincl": 2065,
      "æ´»": 2066,
      "chn": 2067,
      "ĠSte": 2068,
      "ĠGre": 2069,
      "ĠãĥŃ": 2070,
      "ĠBer": 2071,
      "ĠHist": 2072,
      "âĢľ": 2073,
      "æĿ±äº¬": 2074,
      "ãĤ¦ãĤ§": 2075,
      "Ġvers": 2076,
      "uf": 2077,
      "ĠPre": 2078,
      "ember": 2079,
      "ram": 2080,
      "ĠÃ¼": 2081,
      "ĠPol": 2082,
      "BC": 2083,
      "Ħļ": 2084,
      "iÃ¨re": 2085,
      "Ġbeen": 2086,
      "ĠOpen": 2087,
      "ĠDer": 2088,
      "Ġ13": 2089,
      "ŃåĴĮ": 2090,
      "¹Û": 2091,
      "Ġthis": 2092,
      "ãĤ¹ãĥĨ": 2093,
      "Ġcan": 2094,
      "ĠSw": 2095,
      "ature": 2096,
      "Ġco": 2097,
      "ãģ«ãĤĪãĤĭ": 2098,
      "ĠãĤ³": 2099,
      "Ã³": 2100,
      "Ġform": 2101,
      "lem": 2102,
      "æĮģ": 2103,
      "Ġ2021": 2104,
      "Ġye": 2105,
      "81": 2106,
      "å¹´ãģ®çĽ¸æĴ²": 2107,
      "ãĥªãĤª": 2108,
      "ãĥķãĤ©": 2109,
      "Ġfl": 2110,
      "ãģ»": 2111,
      "ĠMal": 2112,
      "ĠHer": 2113,
      "ional": 2114,
      "ĠBrit": 2115,
      "Ġsa": 2116,
      "Ø§Ø²ÛĮ": 2117,
      "ana": 2118,
      "Ġact": 2119,
      "ÛĮØ±": 2120,
      "ĠEuropean": 2121,
      "éĮ²": 2122,
      "æ©ĭ": 2123,
      "eter": 2124,
      "å¤©": 2125,
      "ãĤ·ãĤ¢": 2126,
      "els": 2127,
      "ãĥ¦": 2128,
      "Ġind": 2129,
      "ç·ı": 2130,
      "hed": 2131,
      "xt": 2132,
      "ãĤ·ãĥ£": 2133,
      "vol": 2134,
      "ative": 2135,
      "ĠWh": 2136,
      "isme": 2137,
      "ç´Ħ": 2138,
      "Ġcent": 2139,
      "ľ°": 2140,
      "Ġbet": 2141,
      "piel": 2142,
      "è·¯": 2143,
      "ĠReg": 2144,
      "Û°Û": 2145,
      "ãģ§ãģį": 2146,
      "ĩãĤ£": 2147,
      "ichte": 2148,
      "ãĤ¿ãĥ¼": 2149,
      "Ġlin": 2150,
      "Ġbec": 2151,
      "ield": 2152,
      "è°·": 2153,
      "çĬ": 2154,
      "æ³¨": 2155,
      "Ø·": 2156,
      "ara": 2157,
      "fe": 2158,
      "Ġæĺ": 2159,
      "Ġ)": 2160,
      "å¤ī": 2161,
      "Ã´": 2162,
      "ĠYork": 2163,
      "ĠEin": 2164,
      "ĠPe": 2165,
      "Ġ2004": 2166,
      "Ġ11": 2167,
      "Ġsup": 2168,
      "ãģĴ": 2169,
      "Ġ2000": 2170,
      "uÃŁ": 2171,
      "è¡Ĩ": 2172,
      "Ġpoint": 2173,
      "ular": 2174,
      "ĠComp": 2175,
      "ĠãĥĹ": 2176,
      "è¨Ī": 2177,
      "åł±": 2178,
      "åĪ©": 2179,
      "ada": 2180,
      "ott": 2181,
      "Ġac": 2182,
      "ãģĬãĤĬ": 2183,
      "å¢": 2184,
      "ely": 2185,
      "Ġauch": 2186,
      "ç±": 2187,
      "Ġ=": 2188,
      "åĳ½": 2189,
      "dition": 2190,
      "ãĥĥãĤ¯ãĤ¹": 2191,
      "æħ": 2192,
      "con": 2193,
      "ives": 2194,
      "Ġ2007": 2195,
      "igen": 2196,
      "ãĤ¢ãĥ¡ãĥªãĤ«": 2197,
      "Ġnach": 2198,
      "oman": 2199,
      "oir": 2200,
      "40": 2201,
      "éĢ²": 2202,
      "oph": 2203,
      "ĠVol": 2204,
      "aison": 2205,
      "ĠØ¹": 2206,
      "æģ": 2207,
      "ury": 2208,
      "88": 2209,
      "ä¼Ŀ": 2210,
      "bum": 2211,
      "Ġafter": 2212,
      "éļĬ": 2213,
      "ãĤ¤ãĤ¹": 2214,
      "Ġstation": 2215,
      "æ±º": 2216,
      "iche": 2217,
      "ĠÚ©Ùĩ": 2218,
      "Ġsont": 2219,
      "åŁİ": 2220,
      "FA": 2221,
      "ject": 2222,
      "ĠãĢĮ": 2223,
      "istrict": 2224,
      "ãĥ¼ãĥĬ": 2225,
      "Ġann": 2226,
      "å±Ģ": 2227,
      "ĠPortail": 2228,
      "æĹ¥ãģ«": 2229,
      "by": 2230,
      "ĠQu": 2231,
      "cle": 2232,
      "éĸĢ": 2233,
      "ä¼ļç¤¾": 2234,
      "aux": 2235,
      "éĢł": 2236,
      "Ġ&": 2237,
      "Ġå±": 2238,
      "ants": 2239,
      "Ġinter": 2240,
      "è²¨": 2241,
      "è±": 2242,
      "rop": 2243,
      "yd": 2244,
      "chen": 2245,
      "Ġcar": 2246,
      "aur": 2247,
      "ungs": 2248,
      "ower": 2249,
      "ãĤĪãĤĬ": 2250,
      "ĠAt": 2251,
      "ãĤ°ãĥ©": 2252,
      "åįĶ": 2253,
      "ä»ĺ": 2254,
      "Ġfin": 2255,
      "ĠSup": 2256,
      "ãģĵãģ¨ãģĮ": 2257,
      "é¦¬": 2258,
      "Ø§Ø¯Ùĩ": 2259,
      "oire": 2260,
      "å¾Ĺ": 2261,
      "ç´Ģ": 2262,
      "ä½Ĳ": 2263,
      "arl": 2264,
      "ãĢħ": 2265,
      "of": 2266,
      "ĠCal": 2267,
      "Ġass": 2268,
      "åħī": 2269,
      "Ġover": 2270,
      "ĠDav": 2271,
      "ĠAug": 2272,
      "ptem": 2273,
      "Ġmus": 2274,
      "ĠWomen": 2275,
      "bre": 2276,
      "ç¸": 2277,
      "Ġloc": 2278,
      "Ġreg": 2279,
      "sh": 2280,
      "éīĦéģĵ": 2281,
      "ĠAut": 2282,
      "89": 2283,
      "ilit": 2284,
      "ĠAss": 2285,
      "çľŁ": 2286,
      "åŁŁ": 2287,
      "åºĹ": 2288,
      "ĠâĪ": 2289,
      "Ġsub": 2290,
      "ÛĮÙħ": 2291,
      "å®ī": 2292,
      "berg": 2293,
      "ç¿": 2294,
      "ĠJu": 2295,
      "ette": 2296,
      "86": 2297,
      "ours": 2298,
      "Ã¨le": 2299,
      "éĺª": 2300,
      "erre": 2301,
      "éĤ": 2302,
      "Ã¤t": 2303,
      "ough": 2304,
      "æŃĮ": 2305,
      "Ġacc": 2306,
      "ãĤ¤ãĥ«": 2307,
      "rib": 2308,
      "¢¨": 2309,
      "aly": 2310,
      "ĠãĥĪ": 2311,
      "ĠUS": 2312,
      "ÛĮØ§": 2313,
      "æµģ": 2314,
      "ĠHar": 2315,
      "Ġap": 2316,
      "itz": 2317,
      "åºľ": 2318,
      "Ġother": 2319,
      "ĠÃ©t": 2320,
      "Ã©v": 2321,
      "Ã©ri": 2322,
      "197": 2323,
      "red": 2324,
      "Ġå¤ĸ": 2325,
      "Ġnum": 2326,
      "ĠÃ¼ber": 2327,
      "ress": 2328,
      "ĠEd": 2329,
      "lement": 2330,
      "aul": 2331,
      "ĠTra": 2332,
      "ĠNorth": 2333,
      "ĠCo": 2334,
      "ãĤ¸ãĤ§": 2335,
      "Ġ/": 2336,
      "Ġpubl": 2337,
      "agn": 2338,
      "ØªØ±": 2339,
      "çĪ": 2340,
      "ï¼īãĢģ": 2341,
      "ç¶ļ": 2342,
      "Ġgroup": 2343,
      "fÃ©r": 2344,
      "ãĥīãĥ©": 2345,
      "ãĥ¼ãĥĦ": 2346,
      "ãĥ³ãĥĹ": 2347,
      "par": 2348,
      "ĠChampionnat": 2349,
      "ãģĹãģ¦ãģĦãģŁ": 2350,
      "amil": 2351,
      "ãĥ¬ãĤ¹": 2352,
      "lant": 2353,
      "ãĤµãĥĥãĤ«ãĥ¼": 2354,
      "ĠChrist": 2355,
      "agne": 2356,
      "æĹı": 2357,
      "ald": 2358,
      "60": 2359,
      "èª¬": 2360,
      "oub": 2361,
      "ma": 2362,
      "çĻ»": 2363,
      "å§ĭ": 2364,
      "ĠFr": 2365,
      "èĢĥ": 2366,
      "ãĥķãĤ§": 2367,
      "ĠGrand": 2368,
      "vers": 2369,
      "å¿ĥ": 2370,
      "yp": 2371,
      "Úĺ": 2372,
      "ĠåĮĹ": 2373,
      "ĠFootball": 2374,
      "ĠâĢŀ": 2375,
      "ĠÙĤ": 2376,
      "Ġout": 2377,
      "ãĥ´ãĤ¡": 2378,
      "85": 2379,
      "ãģĿãĤĮ": 2380,
      "ste": 2381,
      "ç¨®": 2382,
      "Ġ2023": 2383,
      "ige": 2384,
      "ures": 2385,
      "Ġmet": 2386,
      "ĠèĦļ": 2387,
      "ĠFC": 2388,
      "è§£": 2389,
      "çĹ": 2390,
      "ues": 2391,
      "ologie": 2392,
      "ĠBra": 2393,
      "Ã¨re": 2394,
      "fin": 2395,
      "ĠGesch": 2396,
      "ĠPhil": 2397,
      "atz": 2398,
      "ĠWeb": 2399,
      "ets": 2400,
      "æ¸¯": 2401,
      "mann": 2402,
      "ife": 2403,
      "çŁ³": 2404,
      "Ġcol": 2405,
      "Ġartic": 2406,
      "åº§": 2407,
      "Ġprem": 2408,
      "ĠGl": 2409,
      "utsch": 2410,
      "ãģĵãĤĮ": 2411,
      "å®®": 2412,
      "ä½ľåĵģ": 2413,
      "çģ": 2414,
      "ãģ«ãĤĪãĤĬ": 2415,
      "ĠII": 2416,
      "Ġtime": 2417,
      "velop": 2418,
      "90": 2419,
      "aÃ": 2420,
      "ĠæŃ": 2421,
      "ĠBel": 2422,
      "ä¿Ĥ": 2423,
      "åºĥ": 2424,
      "key": 2425,
      "åįģ": 2426,
      "ĠIm": 2427,
      "Ġ2002": 2428,
      "çĶ±": 2429,
      "Ġå±±": 2430,
      "Ġret": 2431,
      "Ġup": 2432,
      "Ġmonde": 2433,
      "ris": 2434,
      "ä»»": 2435,
      "æĺŃåĴĮ": 2436,
      "ãĥĺ": 2437,
      "Ġ1992": 2438,
      "è»¢": 2439,
      "Ġmar": 2440,
      "çµ±": 2441,
      "é¡ŀ": 2442,
      "ç§°": 2443,
      "ãĥ©ãĥ³ãĥī": 2444,
      "uel": 2445,
      "ãģĮãģĤãĤĭ": 2446,
      "erst": 2447,
      "Ã©g": 2448,
      "ĠPart": 2449,
      "Ġãĥı": 2450,
      "ãĥ¬ãĤ¤": 2451,
      "Ġob": 2452,
      "ĠãĥĨ": 2453,
      "é«ĺçŃī": 2454,
      "æĪ¸": 2455,
      "ãĥ©ãĥ³ãĤ¹": 2456,
      "ĠKing": 2457,
      "æĺŁ": 2458,
      "ãĥ¬ãĥ¼ãĥ": 2459,
      "ãĤĢ": 2460,
      "ĠCor": 2461,
      "ling": 2462,
      "ĠAugust": 2463,
      "Ġãĥĸ": 2464,
      "ä»ĸ": 2465,
      "ĠNov": 2466,
      "ĠPort": 2467,
      "éĬ": 2468,
      "ĠWill": 2469,
      "èĪª": 2470,
      "erson": 2471,
      "ÙĪÙħ": 2472,
      "ãĤ¸ãĤ¢": 2473,
      "ãĢģãĢĮ": 2474,
      "Ġunder": 2475,
      "ĠÎ": 2476,
      "åĲĳ": 2477,
      "æ£": 2478,
      "Ġsie": 2479,
      "Ġinto": 2480,
      "Ø§Ø±ÛĮ": 2481,
      "ãĢıï¼Ī": 2482,
      "Ġãĥī": 2483,
      "Ġthey": 2484,
      "åıĤ": 2485,
      "cess": 2486,
      "ital": 2487,
      "ka": 2488,
      "Ġ\\": 2489,
      "overn": 2490,
      "Ġgr": 2491,
      "ãģ®å¾": 2492,
      "ino": 2493,
      "ketball": 2494,
      "ĠCity": 2495,
      "ãĤ¥": 2496,
      "ui": 2497,
      "ious": 2498,
      "etz": 2499,
      "Ġce": 2500,
      "Ġãĥĳ": 2501,
      "Ġfe": 2502,
      "å¹³æĪĲ": 2503,
      "ĠèĦļæ³¨": 2504,
      "éŃ": 2505,
      "ãĥ´ãĤ£": 2506,
      "Ġbis": 2507,
      "ãĤ¹ãĤ±": 2508,
      "Åį": 2509,
      "Ġé«ĺ": 2510,
      "ike": 2511,
      "ĠLand": 2512,
      "Ġ2005": 2513,
      "icip": 2514,
      "87": 2515,
      "å¸«": 2516,
      "ĠListe": 2517,
      "ãĥ³ãģ®": 2518,
      "Ġeiner": 2519,
      "ahn": 2520,
      "åŃĹ": 2521,
      "è¿ĳ": 2522,
      "ennis": 2523,
      "ãĤ¤ãĥĦ": 2524,
      "Ġdies": 2525,
      "çµĤ": 2526,
      "enz": 2527,
      "æĻĤä»£": 2528,
      "æĮĻ": 2529,
      "ãģĻãģ¹": 2530,
      "è£½": 2531,
      "èĳī": 2532,
      "çĦ¡": 2533,
      "quipe": 2534,
      "anc": 2535,
      "ĠAward": 2536,
      "åĽ³": 2537,
      "84": 2538,
      "Ġä¸ī": 2539,
      "ãģ«ãĤĪãģ£ãģ¦": 2540,
      "ãģ²": 2541,
      "ĠãĤ¯": 2542,
      "rim": 2543,
      "çĭ": 2544,
      "2016": 2545,
      "AC": 2546,
      "ãĤŃãĥ£": 2547,
      "ists": 2548,
      "iograph": 2549,
      "ãĤĮãĤĭ": 2550,
      "Ġå¤ĸéĥ¨": 2551,
      "ĠæĿ±äº¬": 2552,
      "Ġpeople": 2553,
      "ĠApr": 2554,
      "ĠChina": 2555,
      "St": 2556,
      "ĠØ§Ø±": 2557,
      "åŃĺ": 2558,
      "lands": 2559,
      "Ġæĸ°": 2560,
      "åĩºèº«ãģ®": 2561,
      "Ø§Ø´": 2562,
      "ĠZe": 2563,
      "Ġå¤ĸéĥ¨ãĥªãĥ³ãĤ¯": 2564,
      "ros": 2565,
      "Ġsystem": 2566,
      "ally": 2567,
      "hiver": 2568,
      "ĠSan": 2569,
      "ãĥĸãĥ«": 2570,
      "ãĥ¼ãĤ«": 2571,
      "Ġè¥¿": 2572,
      "ÛĮÚ©ÛĮ": 2573,
      "è«ĸ": 2574,
      "å½¹": 2575,
      "ãģ«ãģĤãĤĭ": 2576,
      "Ġåĩº": 2577,
      "ferences": 2578,
      "ãĥ³ãĤ·": 2579,
      "ischer": 2580,
      "ãģ¨ãģªãģ£ãģŁ": 2581,
      "com": 2582,
      "urch": 2583,
      "åĸ¶": 2584,
      "ha": 2585,
      "ĠBas": 2586,
      "iens": 2587,
      "æ¹": 2588,
      "ĠSaint": 2589,
      "Ġserv": 2590,
      "Ġdurch": 2591,
      "ĠãĤŃ": 2592,
      "ĠWint": 2593,
      "Ġshort": 2594,
      "identifier": 2595,
      "ç§»": 2596,
      "{\\": 2597,
      "Ġkn": 2598,
      "ĠØ¨Ø§Ø²ÛĮ": 2599,
      "ane": 2600,
      "Ġsu": 2601,
      "rol": 2602,
      "ior": 2603,
      "æ½": 2604,
      "ãĤ¯ãĥĪ": 2605,
      "ĠØ§ÛĮÙĨ": 2606,
      "ude": 2607,
      "rag": 2608,
      "ĠAustral": 2609,
      "cept": 2610,
      "éĸ¢ä¿Ĥ": 2611,
      "FC": 2612,
      "ãģĦãģŁ": 2613,
      "Ø¨ÛĮ": 2614,
      "Ġmod": 2615,
      "Ġagain": 2616,
      "é¨": 2617,
      "Ġinc": 2618,
      "IN": 2619,
      "åħļ": 2620,
      "èŃ¦": 2621,
      "ĠMay": 2622,
      "ĠArt": 2623,
      "ãĥªãĥ¼ãĤº": 2624,
      "ĠãĤªãĥªãĥ³ãĥĶãĥĥãĤ¯ãģ®": 2625,
      "Ġ978": 2626,
      "ĠAth": 2627,
      "Ġ1996": 2628,
      "å»º": 2629,
      "ãĥ¨": 2630,
      "ãĤĮãģŁ": 2631,
      "ï¼īãĢĤ": 2632,
      "ĠFilm": 2633,
      "Ġprodu": 2634,
      "Ġnew": 2635,
      "hn": 2636,
      "Ġmen": 2637,
      "æĦĽ": 2638,
      "Ġsing": 2639,
      "arg": 2640,
      "iner": 2641,
      "over": 2642,
      "hen": 2643,
      "æĦı": 2644,
      "ÙĪÙ¾": 2645,
      "ãĥ³ãĥĲ": 2646,
      "æĴĥ": 2647,
      "Ġpop": 2648,
      "ĠRepubl": 2649,
      "ouse": 2650,
      "Ġwer": 2651,
      "å¯Ł": 2652,
      "auf": 2653,
      "ãģ¨ãĤĤ": 2654,
      "æĺłçĶ»": 2655,
      "Ã¢": 2656,
      "enne": 2657,
      "ĠSoc": 2658,
      "AS": 2659,
      "åŁº": 2660,
      "ius": 2661,
      "éŁ": 2662,
      "pect": 2663,
      "Ġvol": 2664,
      "æŀľ": 2665,
      "Ġsecond": 2666,
      "organ": 2667,
      "ãĥ¼ãĥŃ": 2668,
      "ya": 2669,
      "ociation": 2670,
      "ule": 2671,
      "ĠåŃ": 2672,
      "Ġtro": 2673,
      "ãģĭãģ£ãģŁ": 2674,
      "Ã¶n": 2675,
      "Ġzur": 2676,
      "Ãī": 2677,
      "ama": 2678,
      "åı¤å±ĭ": 2679,
      "çĮ": 2680,
      "é¡Į": 2681,
      "anz": 2682,
      "ĠSport": 2683,
      "æĿ¾": 2684,
      "çĽ´": 2685,
      "eme": 2686,
      "ret": 2687,
      "Ġatt": 2688,
      "Ú¯Ø§Ùĩ": 2689,
      "off": 2690,
      "ãĤ·ãĥ§": 2691,
      "ĠMet": 2692,
      "Ġint": 2693,
      "ĠÙĦ": 2694,
      "mpl": 2695,
      "cem": 2696,
      "ee": 2697,
      "ä¼ģ": 2698,
      "AA": 2699,
      "Ġdeux": 2700,
      "ãĥ©ãĥ¼": 2701,
      "45": 2702,
      "ãģ¶": 2703,
      "ober": 2704,
      "Ġ+": 2705,
      "196": 2706,
      "æ¤": 2707,
      "æł¼": 2708,
      "rench": 2709,
      "Ġmatch": 2710,
      "Ġused": 2711,
      "ĠMed": 2712,
      "ÙħÙ¾": 2713,
      "Ġmed": 2714,
      "ãģĻãģ¹ãģ¦": 2715,
      "raft": 2716,
      "å°ĳ": 2717,
      "éĻ¸": 2718,
      "gy": 2719,
      "ross": 2720,
      "ĠPal": 2721,
      "ãģ§ãģĤãĤĬ": 2722,
      "Ã©rie": 2723,
      "gan": 2724,
      "å½¼": 2725,
      "rough": 2726,
      "pend": 2727,
      "iert": 2728,
      "Ġ1988": 2729,
      "ĠGeschichte": 2730,
      "ãĤ¤ãĥī": 2731,
      "ä¹ħ": 2732,
      "æ¶": 2733,
      "Ġum": 2734,
      "ãģ®æŃ": 2735,
      "æ´ĭ": 2736,
      "ĠThis": 2737,
      "ei": 2738,
      "rÃ©": 2739,
      "é«ĺçŃīåŃ¦æł¡": 2740,
      "æĸĻ": 2741,
      "ãģ¨ãģªãĤĭ": 2742,
      "Ġmore": 2743,
      "ales": 2744,
      "\".": 2745,
      "Ġdiffer": 2746,
      "Ġsign": 2747,
      "ãģ§ãĤĤ": 2748,
      "ãĤ·ãĥ§ãĥ³": 2749,
      "ator": 2750,
      "asc": 2751,
      "ky": 2752,
      "ä»¶": 2753,
      "eder": 2754,
      "Ġzum": 2755,
      "An": 2756,
      "ull": 2757,
      "ween": 2758,
      "ÙĩØ§": 2759,
      "Ġbl": 2760,
      "lection": 2761,
      "hl": 2762,
      "å®ĺ": 2763,
      "ãģ«ãģ¤": 2764,
      "Ġwerden": 2765,
      "ãģ¨ãģĻãĤĭ": 2766,
      "ahl": 2767,
      "ç´ļ": 2768,
      "ãĤĩ": 2769,
      "omin": 2770,
      "ID": 2771,
      "æŃ¦": 2772,
      "ĠTrans": 2773,
      "Ġplayers": 2774,
      "2017": 2775,
      "aten": 2776,
      "ãģ«éĸ¢": 2777,
      "ï½": 2778,
      "ä½¿çĶ¨": 2779,
      "ĠØ¨Ø§": 2780,
      "ãĥ«ãĤ¹": 2781,
      "ãĤīãĤĮãĤĭ": 2782,
      "ĠWinterspiele": 2783,
      "éłĺ": 2784,
      "ĠTur": 2785,
      "Ã¤r": 2786,
      "ãĢįï¼Ī": 2787,
      "ĠTr": 2788,
      "uÃŁball": 2789,
      "Ġnicht": 2790,
      "Ġdo": 2791,
      "ĠØŃ": 2792,
      "ä½ı": 2793,
      "ains": 2794,
      "çļĦãģª": 2795,
      "ãģ®ä¸Ģ": 2796,
      "Ġ1980": 2797,
      "Ġhigh": 2798,
      "Ã¶r": 2799,
      "Ġdire": 2800,
      "Ġparall": 2801,
      "ĠAfr": 2802,
      "ĠJanu": 2803,
      "Ġ30": 2804,
      "ãģ§ãģĤãģ£ãģŁ": 2805,
      "ãĥ³ãĥģ": 2806,
      "In": 2807,
      "ãĥĭãĥ¥": 2808,
      "æ¡": 2809,
      "Ġ[": 2810,
      "ãĤ¨ãĥ«": 2811,
      "Ġcap": 2812,
      "ove": 2813,
      "duc": 2814,
      "Ġseries": 2815,
      "fess": 2816,
      "Ġouest": 2817,
      "åıİ": 2818,
      "ĠLig": 2819,
      "Ġno": 2820,
      "31": 2821,
      "ible": 2822,
      "ished": 2823,
      "ÃŁe": 2824,
      "ows": 2825,
      "è¡ĨåĽ½": 2826,
      "ER": 2827,
      "Ġwould": 2828,
      "Ġ.": 2829,
      "ï¼Ŀ": 2830,
      "Ġ1998": 2831,
      "ãĤ¿ãĤ¤": 2832,
      "ãĥ¼ãĥĲ": 2833,
      "Ġ25": 2834,
      "Ġlinks": 2835,
      "æĸ½": 2836,
      "ĠMart": 2837,
      "åĲĪè¡ĨåĽ½": 2838,
      "Ø§ÛĮÛĮ": 2839,
      "èī¯": 2840,
      "AD": 2841,
      "´åı²": 2842,
      "ÙħØ±": 2843,
      "åı¯": 2844,
      "ĠÛ±Û¹Û": 2845,
      "imes": 2846,
      "ĠGames": 2847,
      "95": 2848,
      "ĠArch": 2849,
      "uit": 2850,
      "uz": 2851,
      "Ġãĥ¬": 2852,
      "ĠparallÃ¨le": 2853,
      "æ§ĺ": 2854,
      "ãĥ¼ãĥķ": 2855,
      "Ġhist": 2856,
      "ources": 2857,
      "96": 2858,
      "ãģªãģı": 2859,
      "iger": 2860,
      "è¬": 2861,
      "ç¦ı": 2862,
      "ãĤ¼": 2863,
      "ç¹": 2864,
      "ãĥŁãĥ¥": 2865,
      "Ġ,": 2866,
      "ased": 2867,
      "cht": 2868,
      "ãĥ¼ãĥ«ãĥī": 2869,
      "Ġju": 2870,
      "Ġmin": 2871,
      "ĠDiv": 2872,
      "riv": 2873,
      "ĠØ§ÙĦÙħÙ¾": 2874,
      "ĠSeptem": 2875,
      "del": 2876,
      "Ġclass": 2877,
      "ĠFrench": 2878,
      "èĦ": 2879,
      "Ġpres": 2880,
      "Ø¨Ø§ÙĦ": 2881,
      "å¸¸": 2882,
      "Ġinternational": 2883,
      "erb": 2884,
      "ĠStad": 2885,
      "oz": 2886,
      "ãĤ°ãĥ«": 2887,
      "istan": 2888,
      "éħį": 2889,
      "ĠØ§ÙĦÙħÙ¾ÛĮÚ©": 2890,
      "ges": 2891,
      "ouv": 2892,
      "lam": 2893,
      "arm": 2894,
      "éľ": 2895,
      "ĠÐ": 2896,
      "åĻ": 2897,
      "35": 2898,
      "ission": 2899,
      "ãĥ¼ãĥª": 2900,
      "Ġx": 2901,
      "Ġstat": 2902,
      "ãģ«å¯¾": 2903,
      "ĠBritish": 2904,
      "åĬĩ": 2905,
      "Ġduring": 2906,
      "Ø¨Ø§ÙĨ": 2907,
      "ãĤĴåıĹ": 2908,
      "ÛĮØª": 2909,
      "ĠAc": 2910,
      "ä¸¡": 2911,
      "ãĥĸãĥ©": 2912,
      "Al": 2913,
      "Ġarticles": 2914,
      "è©¦": 2915,
      "èª¿": 2916,
      "pos": 2917,
      "èĸ": 2918,
      "ĠPaul": 2919,
      "ico": 2920,
      "ĠCount": 2921,
      "geb": 2922,
      "hal": 2923,
      "ĠãĥŁ": 2924,
      "ÛĮØ¯": 2925,
      "stru": 2926,
      "48": 2927,
      "Ġhat": 2928,
      "ãģ®å¾Į": 2929,
      "Ġbetween": 2930,
      "ãģ®æĶ": 2931,
      "ipp": 2932,
      "AT": 2933,
      "oe": 2934,
      "ony": 2935,
      "rab": 2936,
      "å¿ľ": 2937,
      "æŃ¢": 2938,
      "inese": 2939,
      "Ġchamp": 2940,
      "Ġprov": 2941,
      "cent": 2942,
      "Ġonly": 2943,
      "Ġwird": 2944,
      "ĠDan": 2945,
      "å¥Ī": 2946,
      "oÃ": 2947,
      "abl": 2948,
      "Ġeff": 2949,
      "ĠClub": 2950,
      "Ġclub": 2951,
      "åĿ": 2952,
      "èī¦": 2953,
      "ume": 2954,
      "Ġrail": 2955,
      "Ġmost": 2956,
      "ãĥĬãĥ«": 2957,
      "Ġæ°": 2958,
      "ĠParis": 2959,
      "æĤ": 2960,
      "ities": 2961,
      "aille": 2962,
      "å¤«": 2963,
      "obox": 2964,
      "æ·": 2965,
      "æĶ¹": 2966,
      "ĠÃīt": 2967,
      "ä¼Ĭ": 2968,
      "ĠFre": 2969,
      "ĠFI": 2970,
      "ãĥ³ãĤ¬": 2971,
      "Ġï¼ī": 2972,
      "ĠChar": 2973,
      "ĠSeptember": 2974,
      "ĠNord": 2975,
      "istersch": 2976,
      "ĠShort": 2977,
      "Ġdifferent": 2978,
      "çľģ": 2979,
      "Ġ2003": 2980,
      "ãĤīãĤĮãģŁ": 2981,
      "ĠSie": 2982,
      "ones": 2983,
      "ãĥĥãĥĪãĥľãĥ¼ãĥ«": 2984,
      "ĠPer": 2985,
      "å¼ķ": 2986,
      "AN": 2987,
      "ĠWest": 2988,
      "ĠMc": 2989,
      "ĠShe": 2990,
      "ãģ¨ãģ¯": 2991,
      "gal": 2992,
      "Ġsuch": 2993,
      "Ø±ÙĪ": 2994,
      "Ġå²": 2995,
      "ãģĵãģ¨ãĤĴ": 2996,
      "ä¸ĩ": 2997,
      "ĠMer": 2998,
      "éģĶ": 2999,
      "Ġcal": 3000,
      "Ġpolit": 3001,
      "ãĥ¼ãĥĨ": 3002,
      "part": 3003,
      "rad": 3004,
      "ĠApril": 3005,
      "æ§ĭ": 3006,
      "Ġtr": 3007,
      "ieder": 3008,
      "çĬ¶": 3009,
      "Ġrem": 3010,
      "è¡Ľ": 3011,
      "ĠåĽ½éīĦ": 3012,
      "uen": 3013,
      "bl": 3014,
      "ãĥ¼ãĥģ": 3015,
      "46": 3016,
      "æ±Ł": 3017,
      "ĠAnt": 3018,
      "Ġshe": 3019,
      "ç´ł": 3020,
      "70": 3021,
      "è£ħ": 3022,
      "ĠSec": 3023,
      "AB": 3024,
      "Ø§ÙĦÙĩ": 3025,
      "ãĥ¼ãĤ·ãĥ§ãĥ³": 3026,
      "lev": 3027,
      "æŁ»": 3028,
      "ulture": 3029,
      "è²¨è»Ĭ": 3030,
      "ements": 3031,
      "alle": 3032,
      "Ġ1994": 3033,
      "ĠPark": 3034,
      "ãĤ¯ãĥŃ": 3035,
      "åĤ¬": 3036,
      "ternal": 3037,
      "ãģŁãģ¡": 3038,
      "itions": 3039,
      "å¦": 3040,
      "Ġeurop": 3041,
      "Ġ1984": 3042,
      "æĿ¡": 3043,
      "arn": 3044,
      "Ø³ØªØ§ÙĨÛĮ": 3045,
      "wn": 3046,
      "pro": 3047,
      "¥³": 3048,
      "ĠPrix": 3049,
      "Ġ100": 3050,
      "Ø¦": 3051,
      "attle": 3052,
      "åĳ¼": 3053,
      "ãģĪãĤĭ": 3054,
      "ãģ«ãĤĤ": 3055,
      "Ġwhen": 3056,
      "ĠRec": 3057,
      "imm": 3058,
      "ĠMich": 3059,
      "ä¿®": 3060,
      "eneral": 3061,
      "ãĤ¸ãĤª": 3062,
      "Ġcom": 3063,
      "irc": 3064,
      "burg": 3065,
      "ĠWilliam": 3066,
      "ĠKore": 3067,
      "fobox": 3068,
      "ĠSl": 3069,
      "çĽ£": 3070,
      "Ġãĥĭ": 3071,
      "Ġãĥģ": 3072,
      "ĠDis": 3073,
      "äºĶ": 3074,
      "ebru": 3075,
      "ãĥ¼ãĤ¹ãĥĪ": 3076,
      "ollow": 3077,
      "ster": 3078,
      "Ġspec": 3079,
      "Ġ;": 3080,
      "ãĤĥ": 3081,
      "åħµ": 3082,
      "Ġoffic": 3083,
      "aine": 3084,
      "hi": 3085,
      "äºĪ": 3086,
      "Ġkm": 3087,
      "ÙħØ§ÙĨ": 3088,
      "æ¸Ī": 3089,
      "inz": 3090,
      "Ġvor": 3091,
      "ĠBro": 3092,
      "ĠLond": 3093,
      "ãģ«ãģĬãģĳãĤĭ": 3094,
      "ĠãĤ¿": 3095,
      "ãĤ¤ãĥŃ": 3096,
      "ãģĶ": 3097,
      "ãĥĭãĥ¡": 3098,
      "Ġwhere": 3099,
      "åĤĻ": 3100,
      "ĠãĤ°": 3101,
      "èĬ±": 3102,
      "æĶ¯": 3103,
      "ĠCom": 3104,
      "æīĵ": 3105,
      "Ġæµ": 3106,
      "åĪ¤": 3107,
      "åı¸": 3108,
      "Ġ24": 3109,
      "Ġoder": 3110,
      "ĠCap": 3111,
      "å¤®": 3112,
      "iew": 3113,
      "ney": 3114,
      "ç®¡": 3115,
      "ĠØ±Ø§": 3116,
      "æ´¥": 3117,
      "åľŁ": 3118,
      "ider": 3119,
      "çķªçµĦ": 3120,
      "ange": 3121,
      "ĠStre": 3122,
      "ĠSing": 3123,
      "Ġãĥª": 3124,
      "alis": 3125,
      "ĠØªØ§Ø¨": 3126,
      "Ġpass": 3127,
      "aff": 3128,
      "ãĤĨ": 3129,
      "ãģ¨ãģ®": 3130,
      "Ġdist": 3131,
      "æļ": 3132,
      "ĠIS": 3133,
      "ĠØ¯Ø§Ø±": 3134,
      "ãģĹãģĭ": 3135,
      "99": 3136,
      "æ¨Ļ": 3137,
      "å½¢è²¨è»Ĭ": 3138,
      "Ø±Ø§ÙĨ": 3139,
      "æŃ»": 3140,
      "åĩ": 3141,
      "Ġcomme": 3142,
      "ĠItal": 3143,
      "ĠFebru": 3144,
      "Ġlong": 3145,
      "éģ¸æĮĻ": 3146,
      "å¥³åŃĲ": 3147,
      "æĥħ": 3148,
      "ªãĥªãĥ³ãĥĶãĥĥãĤ¯ãģ®": 3149,
      "é»": 3150,
      "ulation": 3151,
      "teur": 3152,
      "amer": 3153,
      "ĠÃ©tÃ©": 3154,
      "èĪªç©º": 3155,
      "ĠRoy": 3156,
      "Ġä»": 3157,
      "Ġtit": 3158,
      "èī²": 3159,
      "ãĥĻãĥ«": 3160,
      "Ġãĥĩ": 3161,
      "ãģ®ãĤ¹ãĤ¿ãĥĸè¨ĺäºĭ": 3162,
      "ãĤ¦ãĤ£": 3163,
      "ÙĤØ§ÙĦÙĩ": 3164,
      "ãĤĴè¡Į": 3165,
      "ãģłãģ£ãģŁ": 3166,
      "Ġthan": 3167,
      "AR": 3168,
      "éŁ³æ¥½": 3169,
      "ãģ«ãģ¤ãģĦãģ¦": 3170,
      "ye": 3171,
      "Ġ2001": 3172,
      "éĽĦ": 3173,
      "ience": 3174,
      "Ġwork": 3175,
      "ĠDas": 3176,
      "é¢¨": 3177,
      "æ²¢": 3178,
      "Ġãĥ¡": 3179,
      "ãĤ¹ãĤ¿ãĥ¼": 3180,
      "Ġstud": 3181,
      "ĠLi": 3182,
      "Ġ1990": 3183,
      "ãĥ¼ãĥĳ": 3184,
      "åįļ": 3185,
      "Ġter": 3186,
      "ham": 3187,
      "Ġins": 3188,
      "çĿ£": 3189,
      "ĠãģĻãģ¹ãģ¦": 3190,
      "Ġeinem": 3191,
      "iten": 3192,
      "^{": 3193,
      "ĠÛ²Û°Û": 3194,
      "Ġpas": 3195,
      "Ġthree": 3196,
      "Ġhim": 3197,
      "ÙĪØ³": 3198,
      "Ġ21": 3199,
      "åħĪ": 3200,
      "Ġmade": 3201,
      "åĻ¨": 3202,
      "ãģŃ": 3203,
      "ification": 3204,
      "äºī": 3205,
      "æµľ": 3206,
      "Ġagainst": 3207,
      "ãĥĥãĥģ": 3208,
      "dem": 3209,
      "film": 3210,
      "éĢĢ": 3211,
      "47": 3212,
      "Ġsind": 3213,
      "çį": 3214,
      "rier": 3215,
      "ĠEm": 3216,
      "æĹ§": 3217,
      "ĠãģĻãģ¹ãģ¦ãģ®ãĤ¹ãĤ¿ãĥĸè¨ĺäºĭ": 3218,
      "ĠJahr": 3219,
      "èªį": 3220,
      "å§Ķ": 3221,
      "ãģķãģĽ": 3222,
      "36": 3223,
      "ãģ®ä¸Ń": 3224,
      "2015": 3225,
      "ourn": 3226,
      "ander": 3227,
      "ãĥĪãĥ©": 3228,
      "Ġæ¸": 3229,
      "ON": 3230,
      "çı¾åľ¨": 3231,
      "ãĥĿãĥ¼ãĥĦ": 3232,
      "97": 3233,
      "Ch": 3234,
      "ĠeuropÃ©": 3235,
      "ãĤ¦ãĤ¹": 3236,
      "conom": 3237,
      "ISBN": 3238,
      "Ġchar": 3239,
      "ĠBaseball": 3240,
      "æĸĩåĮĸ": 3241,
      "ij": 3242,
      "ink": 3243,
      "na": 3244,
      "å¼·": 3245,
      "37": 3246,
      "éĻ½": 3247,
      "Ġå¾": 3248,
      "ense": 3249,
      "ãĥģãĥ¼ãĥł": 3250,
      "éĺ²": 3251,
      "Ø¬Ùĩ": 3252,
      "ç«ł": 3253,
      "195": 3254,
      "ãĤ®ãĥªãĤ¹": 3255,
      "ĠOlympic": 3256,
      "ãĤ·ãĥªãĥ¼ãĤº": 3257,
      "oute": 3258,
      "ĠØ²Ø¨Ø§ÙĨ": 3259,
      "ĠJapanese": 3260,
      "ister": 3261,
      "por": 3262,
      "ĠNovember": 3263,
      "ĠVal": 3264,
      "ĠDes": 3265,
      "Ġï¼Ī": 3266,
      "èĮ": 3267,
      "èģŀ": 3268,
      "åĨį": 3269,
      "éĩĮ": 3270,
      "è³ĩ": 3271,
      "åħ±åĴĮ": 3272,
      "ycl": 3273,
      "ĠMaj": 3274,
      "ãĥĭãĥ¼": 3275,
      "å¯º": 3276,
      "ãĤ¢ãĥ«ãĥĲ": 3277,
      "ãĤ«ãĥ«": 3278,
      "Ġmer": 3279,
      "ĠDistrict": 3280,
      "Ġç¥": 3281,
      "ĠSal": 3282,
      "ĠKe": 3283,
      "ĠæĹ¥æľ¬ãģ®": 3284,
      "arly": 3285,
      "ĠChinese": 3286,
      "å¿ħ": 3287,
      "ÙĩØ±": 3288,
      "ãĥŀãĥ³": 3289,
      "uts": 3290,
      "ãĥ¼ãĥ¬": 3291,
      "ctor": 3292,
      "wer": 3293,
      "ena": 3294,
      "ford": 3295,
      "ex": 3296,
      "ãģ§ãģįãĤĭ": 3297,
      "Ġrele": 3298,
      "ĠØ¢ÙĨ": 3299,
      "ĠåįĹ": 3300,
      "ĠUnion": 3301,
      "ãģĤãĤĬ": 3302,
      "Ġnumber": 3303,
      "Ġcount": 3304,
      "dom": 3305,
      "ument": 3306,
      "cer": 3307,
      "Ġqual": 3308,
      "èĲ": 3309,
      "ĠMor": 3310,
      "ĠÚĨ": 3311,
      "uv": 3312,
      "ç¢": 3313,
      "èŃ¦å¯Ł": 3314,
      "Ġ1999": 3315,
      "rest": 3316,
      "Ġæ²": 3317,
      "Ġplan": 3318,
      "ĠSuper": 3319,
      "ĠNot": 3320,
      "ĠãĥĹãĥŃ": 3321,
      "ĠSam": 3322,
      "owe": 3323,
      "eln": 3324,
      "ä¹ĭ": 3325,
      "ĠMit": 3326,
      "é£Ł": 3327,
      "ira": 3328,
      "æŀĹ": 3329,
      "åĽĽ": 3330,
      "ban": 3331,
      "han": 3332,
      "ockey": 3333,
      "ĠMy": 3334,
      "ãĤĴæĮģ": 3335,
      "ÙĪØ§ÙĨ": 3336,
      "è¦ª": 3337,
      "Ġmill": 3338,
      "ãĥ¼ãĥĸ": 3339,
      "çĻºå£²": 3340,
      "ĠAlex": 3341,
      "fore": 3342,
      "ãģ«éĸ¢ãģĻãĤĭ": 3343,
      "rom": 3344,
      "èį": 3345,
      "ãĥ³ãĤ¿ãĥ¼": 3346,
      "Ġexp": 3347,
      "reat": 3348,
      "åıį": 3349,
      "ĠåĽ½éīĦãĤ¿": 3350,
      "ĠéĿ": 3351,
      "Ġorig": 3352,
      "Ġunter": 3353,
      "ĠãĤ»": 3354,
      "ĠØªØ§Ø¨Ø³ØªØ§ÙĨÛĮ": 3355,
      "Ø§Ú©": 3356,
      "å¸Ŀ": 3357,
      "line": 3358,
      "ek": 3359,
      "atri": 3360,
      "Ġfran": 3361,
      "ĠRÃ©": 3362,
      "Ø§Ø³Øª": 3363,
      "åķı": 3364,
      "ĠReferences": 3365,
      "åĽ½éļĽ": 3366,
      "lor": 3367,
      "Ġevent": 3368,
      "ĠEmp": 3369,
      "ĠãĥĿ": 3370,
      "Ġnord": 3371,
      "ete": 3372,
      "Ø§Ø¯ÛĮ": 3373,
      "å®³": 3374,
      "mar": 3375,
      "èĪ¹": 3376,
      "Ġåľ°": 3377,
      "ãģ«ãģĬãģĦãģ¦": 3378,
      "Ġãĥ¢": 3379,
      "ĠGerman": 3380,
      "ĠãĥĻ": 3381,
      "hor": 3382,
      "çĻ½": 3383,
      "94": 3384,
      "Ġabout": 3385,
      "ç²": 3386,
      "ĠÛĮ": 3387,
      "ãģĹãģĦ": 3388,
      "æºĸ": 3389,
      "ĠForm": 3390,
      "Ġunt": 3391,
      "ote": 3392,
      "ker": 3393,
      "ĠãĤ¢ãĥ¡ãĥªãĤ«": 3394,
      "èĬ¸": 3395,
      "ĠMac": 3396,
      "ĠÙħÙĨ": 3397,
      "Ġzwe": 3398,
      "ĠHistory": 3399,
      "rich": 3400,
      "ini": 3401,
      "æĬķ": 3402,
      "Ġentre": 3403,
      "Ġplace": 3404,
      "ĠOct": 3405,
      "ĠÙĪÛĮÚ©ÛĮ": 3406,
      "åįĥ": 3407,
      "ãĥªãĥ³": 3408,
      "Ġant": 3409,
      "Ġpos": 3410,
      "Ġbu": 3411,
      "ãģİ": 3412,
      "ãĤģãģŁ": 3413,
      "bo": 3414,
      "ĠMarch": 3415,
      "åĮ»": 3416,
      "Unis": 3417,
      "è³ª": 3418,
      "ä»ĭ": 3419,
      "ords": 3420,
      "ract": 3421,
      "elf": 3422,
      "pieler": 3423,
      "ç¤º": 3424,
      "gar": 3425,
      "Ġåĩºåħ¸": 3426,
      "Ú¯Ø§ÙĨ": 3427,
      "å§Ķåĵ¡": 3428,
      "éĻĲ": 3429,
      "Ġers": 3430,
      "Ġyears": 3431,
      "det": 3432,
      "formation": 3433,
      "Ġinclud": 3434,
      "çļĦãģ«": 3435,
      "Ġroute": 3436,
      "Ã¼ck": 3437,
      "å¿µ": 3438,
      "cture": 3439,
      "eg": 3440,
      "Ġ23": 3441,
      "åħ±åĴĮåĽ½": 3442,
      "ĠEur": 3443,
      "ĠAus": 3444,
      "ility": 3445,
      "ãģªãģĭãģ£ãģŁ": 3446,
      "ĠFrank": 3447,
      "93": 3448,
      "the": 3449,
      "Ġçī": 3450,
      "..": 3451,
      "èµ·": 3452,
      "ques": 3453,
      "ĠãĤ¦ãĤ£": 3454,
      "Ġed": 3455,
      "Ġcor": 3456,
      "ĠNor": 3457,
      "èĭ±èªŀ": 3458,
      "åĩºèº«ãģ®äººçī©": 3459,
      "ãĥ³ãĤµ": 3460,
      "Ãł": 3461,
      "overnment": 3462,
      "ouver": 3463,
      "Ġknown": 3464,
      "Ġçµ": 3465,
      "oue": 3466,
      "çĿĢ": 3467,
      "ãĤ¤ãĤ¢": 3468,
      "ration": 3469,
      "éĩı": 3470,
      "ãĥĩãĥ¼ãĤ¿": 3471,
      "Ġ26": 3472,
      "ized": 3473,
      "åĲī": 3474,
      "asse": 3475,
      "Ġ1972": 3476,
      "ĠEs": 3477,
      "å®¤": 3478,
      "Ġ1960": 3479,
      "å¹´çĶŁ": 3480,
      "ãģ®æķ": 3481,
      "cher": 3482,
      "Ġthrough": 3483,
      "ãĥ«ãĤ¯": 3484,
      "ãĤģãĤĭ": 3485,
      "imp": 3486,
      "ĠNach": 3487,
      "ĠæĿ¾": 3488,
      "ĠMusic": 3489,
      "Ã§ais": 3490,
      "Ġgen": 3491,
      "ĠDavid": 3492,
      "Ġfinal": 3493,
      "Ġalbum": 3494,
      "ĠÛ²Û°Û±Û": 3495,
      "uan": 3496,
      "ĠGroup": 3497,
      "leg": 3498,
      "min": 3499,
      "Ġfour": 3500,
      "ĠGeorg": 3501,
      "orge": 3502,
      "ãĤ²ãĥ¼ãĥł": 3503,
      "Ġend": 3504,
      "è¡ĮãĤıãĤĮ": 3505,
      "Ġeinen": 3506,
      "BB": 3507,
      "Ġ1997": 3508,
      "The": 3509,
      "Ġ1976": 3510,
      "press": 3511,
      "Ø§Ùģ": 3512,
      "aires": 3513,
      "ãĥ¼ãĥĵ": 3514,
      "ĠCou": 3515,
      "ĠGro": 3516,
      "minist": 3517,
      "éģİ": 3518,
      "ĠRepublic": 3519,
      "ĠEng": 3520,
      "åĲįåı¤å±ĭ": 3521,
      "è¦³": 3522,
      "ael": 3523,
      "reich": 3524,
      "ause": 3525,
      "ãĥŃãĥ³ãĥī": 3526,
      "ãĥ¼ãģ®": 3527,
      "ĠGo": 3528,
      "Ġéķ·": 3529,
      "Ú¯ÙĦÛĮ": 3530,
      "æĽľ": 3531,
      "Ġéĸ¢éĢ£": 3532,
      "éłŃ": 3533,
      "Ġå¯": 3534,
      "ĠCont": 3535,
      "raÃŁe": 3536,
      "ãĥķãĥĪ": 3537,
      "éĢŁ": 3538,
      "Ġrailway": 3539,
      "ĠTom": 3540,
      "Ġorgan": 3541,
      "yr": 3542,
      "èŃ·": 3543,
      "Ġses": 3544,
      "Ġsome": 3545,
      "Ġsol": 3546,
      "\",": 3547,
      "ĠÃītats": 3548,
      "ĠãĥĢ": 3549,
      "ĠFin": 3550,
      "ĠÅ": 3551,
      "Ø¯ÛĮ": 3552,
      "ĠAg": 3553,
      "Ġ1995": 3554,
      "irt": 3555,
      "TV": 3556,
      "other": 3557,
      "Ġç¦ı": 3558,
      "æĹ¥æľ¬ãģ®": 3559,
      "ãĥ¼ãĥĭ": 3560,
      "ãĥªãĤ¹ãĥĪ": 3561,
      "Ġthere": 3562,
      "ĠDem": 3563,
      "ĠProv": 3564,
      "ĠEngl": 3565,
      "ĠJun": 3566,
      "ĠOff": 3567,
      "iro": 3568,
      "ï½ŀ": 3569,
      "ĠLondon": 3570,
      "ĠSaison": 3571,
      "kl": 3572,
      "Ġå½": 3573,
      "ĠGra": 3574,
      "ĨĴ": 3575,
      "åįĬ": 3576,
      "Ġthem": 3577,
      "reis": 3578,
      "ĠBo": 3579,
      "ĠMajor": 3580,
      "ament": 3581,
      "order": 3582,
      "Ġå·": 3583,
      "ä¼ģæ¥Ń": 3584,
      "ÙĪØªØ¨Ø§ÙĦ": 3585,
      "Ġprogr": 3586,
      "æ®º": 3587,
      "éĸĭåĤ¬": 3588,
      "BS": 3589,
      "erein": 3590,
      "Ġsoc": 3591,
      "ĠSm": 3592,
      "å·»": 3593,
      "55": 3594,
      "ĠåĪ": 3595,
      "ĠJanuary": 3596,
      "ãĤ¸ãĥ§": 3597,
      "Ġlater": 3598,
      "ĠHol": 3599,
      "ãĤ«ãĥĥãĥĹ": 3600,
      "Ø§ÙĦÛĮ": 3601,
      "Ġgo": 3602,
      "ãģ«ãģªãĤĭ": 3603,
      "van": 3604,
      "åįĶä¼ļ": 3605,
      "å°Ĥ": 3606,
      "ĠYou": 3607,
      "èĶ": 3608,
      "Ġcommun": 3609,
      "Ġfollow": 3610,
      "æŃ´": 3611,
      "Ã©dia": 3612,
      "43": 3613,
      "ÙĨÚ¯": 3614,
      "100": 3615,
      "éĥ½å¸Ĥ": 3616,
      "Europ": 3617,
      "rew": 3618,
      "æ²³": 3619,
      "ãĤ¹ãĥļ": 3620,
      "aften": 3621,
      "ĠState": 3622,
      "Ð°": 3623,
      "ãĤ·ãĥ³ãĤ°": 3624,
      "rug": 3625,
      "ãģĿãģ®å¾Į": 3626,
      "ved": 3627,
      "Ġç¥ŀ": 3628,
      "ãĥ¼ãĤµ": 3629,
      "ived": 3630,
      "Ġdass": 3631,
      "ãģĲ": 3632,
      "ãĤ°ãĥ«ãĥ¼ãĥĹ": 3633,
      "oon": 3634,
      "ments": 3635,
      "ĠSa": 3636,
      "2014": 3637,
      "uman": 3638,
      "Ġtemp": 3639,
      "ĠAthlet": 3640,
      "ãĥĥãĥĦ": 3641,
      "äºĭä»¶": 3642,
      "ØªÛĮ": 3643,
      "ES": 3644,
      "ÙħÙĤØ§ÙĦÙĩ": 3645,
      "lichen": 3646,
      "lie": 3647,
      "ĠJul": 3648,
      "ĠMont": 3649,
      "ather": 3650,
      "èı¯": 3651,
      "ĠCanada": 3652,
      "éĻį": 3653,
      "enden": 3654,
      "Ġ1964": 3655,
      "Ġ1993": 3656,
      "ĠRoman": 3657,
      "ãĤ¢ãĥĭãĥ¡": 3658,
      "Ú¯ÙĦÛĮØ³ÛĮ": 3659,
      "Ġå¸": 3660,
      "ç±³": 3661,
      "esse": 3662,
      "ienne": 3663,
      "é¦Ļ": 3664,
      "Øº": 3665,
      "ĠsiÃ¨": 3666,
      "ĠHa": 3667,
      "Ġbeing": 3668,
      "ãĤ½ãĥ³": 3669,
      "Ġelect": 3670,
      "ãĤ¸ãĥ¥": 3671,
      "Ġsud": 3672,
      "ĠJuly": 3673,
      "Ġsong": 3674,
      "2018": 3675,
      "éŃĶ": 3676,
      "tz": 3677,
      "å¸Ĥç«ĭ": 3678,
      "iÄ": 3679,
      "Ar": 3680,
      "çĻ»åł´": 3681,
      "ĠÃīquipe": 3682,
      "æ³¢": 3683,
      "ype": 3684,
      "ãĤĩãģĨ": 3685,
      "çİĩ": 3686,
      "Ġje": 3687,
      "Ġ27": 3688,
      "ĠéĽ": 3689,
      "ĠeuropÃ©enne": 3690,
      "Ġdiv": 3691,
      "Ġthen": 3692,
      "è¾¼": 3693,
      "çĶ·åŃĲ": 3694,
      "fol": 3695,
      "ãĤ¹ãĤ¯": 3696,
      "ãĥīãĤ¤ãĥĦ": 3697,
      "æ´¾": 3698,
      "ĠÙģÙĪØªØ¨Ø§ÙĦ": 3699,
      "Ġappe": 3700,
      "ians": 3701,
      "andard": 3702,
      "wa": 3703,
      "olf": 3704,
      "TA": 3705,
      "éĹ": 3706,
      "ĠAssociation": 3707,
      "èŃ°ä¼ļ": 3708,
      "ä¸ĸç´Ģ": 3709,
      "ĠçĻ": 3710,
      "è³Ģ": 3711,
      "Ã³n": 3712,
      "ãģĬãĤĪ": 3713,
      "rent": 3714,
      "ĠRed": 3715,
      "åĪĹ": 3716,
      "ãĤ¢ãĥ«ãĥĲãĥł": 3717,
      "åĪĩ": 3718,
      "ival": 3719,
      "ãģĳãģ¦": 3720,
      "ĠJean": 3721,
      "ization": 3722,
      "unn": 3723,
      "sen": 3724,
      "iety": 3725,
      "Ġ1968": 3726,
      "è¼ī": 3727,
      "ĠLou": 3728,
      "ĠMad": 3729,
      "éĬĢ": 3730,
      "Ġwomen": 3731,
      "Ġdec": 3732,
      "uck": 3733,
      "åı·ç·ļ": 3734,
      "åº«": 3735,
      "eld": 3736,
      "ªå¼ı": 3737,
      "tra": 3738,
      "Ġoper": 3739,
      "agen": 3740,
      "ãĥĵãĤ¢": 3741,
      "Ġans": 3742,
      "èµ°": 3743,
      "å¿ħè¦ģ": 3744,
      "ĠRich": 3745,
      "æĻĤéĸĵ": 3746,
      "ago": 3747,
      "iation": 3748,
      "èģ·": 3749,
      "weise": 3750,
      "äººãģ®": 3751,
      "app": 3752,
      "å®¹": 3753,
      "ĠØ§Ø±ÙĪÙ¾": 3754,
      "æį": 3755,
      "Ġmaj": 3756,
      "Ġwurden": 3757,
      "hm": 3758,
      "la": 3759,
      "éº": 3760,
      "ria": 3761,
      "ĠJune": 3762,
      "ãģĹãģ¾": 3763,
      "ington": 3764,
      "ches": 3765,
      "ko": 3766,
      "ĠåĬ": 3767,
      "atives": 3768,
      "ĠRail": 3769,
      "Ð¾": 3770,
      "éĽ¢": 3771,
      "wan": 3772,
      "ĠCounty": 3773,
      "çĨ": 3774,
      "ä¹Ŀ": 3775,
      "ula": 3776,
      "ãĥīãĥ©ãĥŀ": 3777,
      "Ġ1991": 3778,
      "æīĢå±ŀ": 3779,
      "iÃ¨me": 3780,
      "ĠÛĮÚ©": 3781,
      "Wik": 3782,
      "Ġsuc": 3783,
      "str": 3784,
      "aining": 3785,
      "ľãĥ¼ãĥ«": 3786,
      "ãĥĻãĥ¼ãĤ¹": 3787,
      "æĹħ": 3788,
      "åĳ³": 3789,
      "ias": 3790,
      "çĮ®": 3791,
      "ãģ®åį": 3792,
      "ĠBay": 3793,
      "imb": 3794,
      "Ġéĸ¢éĢ£éłħçĽ®": 3795,
      "ãģ«ãģªãģ£ãģŁ": 3796,
      "Ġãĥ´": 3797,
      "çķ°": 3798,
      "åıĬ": 3799,
      "Ġæ³": 3800,
      "å°ıåŃ¦æł¡": 3801,
      "Ġdev": 3802,
      "ante": 3803,
      "ĠØ¯Ø±Ø¬Ùĩ": 3804,
      "ente": 3805,
      "ä¹Ĺ": 3806,
      "udi": 3807,
      "ĠOctober": 3808,
      "33": 3809,
      "æķĹ": 3810,
      "åķĨ": 3811,
      "Ġlangu": 3812,
      "åº¦ç·ļ": 3813,
      "ĠSil": 3814,
      "åŃĺåľ¨": 3815,
      "ãĥ¥ãĥ¼": 3816,
      "ots": 3817,
      "è¦ı": 3818,
      "ãģ§ãģ®": 3819,
      "va": 3820,
      "ĠRobert": 3821,
      "amed": 3822,
      "Ġlead": 3823,
      "ãĥ³ãĥĩ": 3824,
      "44": 3825,
      "æľĪãģ«": 3826,
      "ĠãĤ¢ãĥ«": 3827,
      "ĠPat": 3828,
      "ites": 3829,
      "ĠInter": 3830,
      "ipÃ©dia": 3831,
      "ãĥ³ãĤªãĥªãĥ³ãĥĶãĥĥãĤ¯ãģ®": 3832,
      "ĠâĪĴ": 3833,
      "ãģŁãĤģãģ«": 3834,
      "åĳ¨": 3835,
      "ĠæĹ¥": 3836,
      "football": 3837,
      "cember": 3838,
      "æ´»åĭķ": 3839,
      "ĠSk": 3840,
      "je": 3841,
      "ãĤªãĥªãĥ³ãĥĶãĥĥãĤ¯": 3842,
      "åŃ¦èĢħ": 3843,
      "temp": 3844,
      "ices": 3845,
      "ĠãĥĽ": 3846,
      "ĠSant": 3847,
      "ç¯ī": 3848,
      "é¨ĵ": 3849,
      "ey": 3850,
      "Ġcour": 3851,
      "çª": 3852,
      "Ġgame": 3853,
      "ua": 3854,
      "ano": 3855,
      "Ġlie": 3856,
      "å¡ļ": 3857,
      "inen": 3858,
      "Ú¯Ø±": 3859,
      "ç¬": 3860,
      "owever": 3861,
      "æŃ³": 3862,
      "Ġgu": 3863,
      "Ġdevelop": 3864,
      "Ġja": 3865,
      "Ġ2024": 3866,
      "OS": 3867,
      "ãĤªãĥ³": 3868,
      "ĠVI": 3869,
      "upt": 3870,
      "pres": 3871,
      "ĠCS": 3872,
      "å®¢": 3873,
      "ĠTer": 3874,
      "ÙģØª": 3875,
      "ãģĳãģŁ": 3876,
      "Ġä¸Ĭ": 3877,
      "¦Ĥ": 3878,
      "ĠBen": 3879,
      "Ġdisc": 3880,
      "Ø±Ú©": 3881,
      "å¹´ä»£": 3882,
      "fÃ¼": 3883,
      "Ġmais": 3884,
      "æĺ¥": 3885,
      "ydro": 3886,
      "çĽŁ": 3887,
      "Ġmay": 3888,
      "Äģ": 3889,
      "2019": 3890,
      "hol": 3891,
      "Ġocc": 3892,
      "ãĥ©ãĤ¯": 3893,
      "ĠHen": 3894,
      "ato": 3895,
      "ĠLib": 3896,
      "itter": 3897,
      "ĠfranÃ§ais": 3898,
      "ĠKingdom": 3899,
      "Ġterm": 3900,
      "ries": 3901,
      "ĠÙħØª": 3902,
      "ãģ®å°": 3903,
      "å¿Ĺ": 3904,
      "æ¨¹": 3905,
      "Ġname": 3906,
      "ĠSud": 3907,
      "Ġæ±": 3908,
      "umb": 3909,
      "ĠBud": 3910,
      "ht": 3911,
      "ĠRes": 3912,
      "ĠçĽ": 3913,
      "aÃ¯": 3914,
      "ĠNet": 3915,
      "ãģ¨ãģĹãģŁ": 3916,
      "ĠSy": 3917,
      "ura": 3918,
      "Ûµ": 3919,
      "Ã©b": 3920,
      "ãĥĮ": 3921,
      "ĠSta": 3922,
      "éĸĭçĻº": 3923,
      "ãģªãĤĭ": 3924,
      "ĠKar": 3925,
      "Ø³ØªØ§ÙĨ": 3926,
      "Ġgl": 3927,
      "åł´æīĢ": 3928,
      "Ã¡n": 3929,
      "é£Ľ": 3930,
      "ĠGermany": 3931,
      "ãĥĩãĥ«": 3932,
      "ĠEnglish": 3933,
      "ĠRoute": 3934,
      "57": 3935,
      "åıĭ": 3936,
      "æĢ¥": 3937,
      "Ġyear": 3938,
      "mes": 3939,
      "åı¯èĥ½": 3940,
      "ĠãĤ½": 3941,
      "ĠHigh": 3942,
      "ĠSub": 3943,
      "çĹħ": 3944,
      "ÛĮØ´": 3945,
      "ĠØ§Ø±ÙĪÙ¾Ø§": 3946,
      "ãģĬãĤĪãģ³": 3947,
      "éĿĴ": 3948,
      "Ġwell": 3949,
      "ãĥķãĥ©ãĥ³ãĤ¹": 3950,
      "ãĤĵãģ§": 3951,
      "Ġvar": 3952,
      "ĠNo": 3953,
      "ĠDecember": 3954,
      "ĠRad": 3955,
      "åĩºçīĪ": 3956,
      "Ġwhile": 3957,
      "ĠTro": 3958,
      "ĠCamp": 3959,
      "ãĤ¹ãĥĿãĥ¼ãĥĦ": 3960,
      "ĠBattle": 3961,
      "ãģ®åľ°": 3962,
      "åĲĦ": 3963,
      "Ġpat": 3964,
      "for": 3965,
      "ĠTor": 3966,
      "æķĻèĤ²": 3967,
      "ãģµ": 3968,
      "ãģ«ãģ¦": 3969,
      "Ġ22": 3970,
      "iles": 3971,
      "iforn": 3972,
      "ĠSchool": 3973,
      "èŃ°åĵ¡": 3974,
      "ãĥ³ãĥĦ": 3975,
      "Ġ1989": 3976,
      "igne": 3977,
      "Ġæł": 3978,
      "åģ´": 3979,
      "ãĥįãĤ¤ãĥŃ": 3980,
      "çĻºè¡¨": 3981,
      "ä¾Ľ": 3982,
      "gle": 3983,
      "2013": 3984,
      "æħĭ": 3985,
      "Ġmov": 3986,
      "Ġnon": 3987,
      "Ġãĥľ": 3988,
      "ãĥ¼ãĥĩ": 3989,
      "ãĥ³ãĥķ": 3990,
      "omet": 3991,
      "ĠåĨ": 3992,
      "éģº": 3993,
      "ĠClass": 3994,
      "åĬ©": 3995,
      "ilt": 3996,
      "Ġwrit": 3997,
      ".\"": 3998,
      "å°İ": 3999,
      "Ġfait": 4000,
      "ÙĤÛĮ": 4001,
      "ĠprÃ©s": 4002,
      "ãĤĵãģł": 4003,
      "èĶµ": 4004,
      "Ġstart": 4005,
      "çĭ¬": 4006,
      "ØµÙģ": 4007,
      "li": 4008,
      "Ġpers": 4009,
      "but": 4010,
      "å©": 4011,
      "gin": 4012,
      "Ġç´": 4013,
      "ĠOb": 4014,
      "ĻĤ": 4015,
      "ĠSo": 4016,
      "ĠPet": 4017,
      "Ġusing": 4018,
      "Ġcin": 4019,
      "æĢĿ": 4020,
      "ĠAngel": 4021,
      "çĴ": 4022,
      "ras": 4023,
      "aiss": 4024,
      "rain": 4025,
      "æ»": 4026,
      "tes": 4027,
      "Ġtennis": 4028,
      "ĠDon": 4029,
      "iale": 4030,
      "ãĥĩãĤ¸ãĥ£": 4031,
      "iences": 4032,
      "ĠJames": 4033,
      "Ġç¾": 4034,
      "Ð¸": 4035,
      "zeich": 4036,
      "EC": 4037,
      "ãĥĩãĤ¸ãĥ£ãĥįãĤ¤ãĥŃ": 4038,
      "ãĥªãĤªãĥĩãĤ¸ãĥ£ãĥįãĤ¤ãĥŃ": 4039,
      "Ġincluding": 4040,
      "èĳĹ": 4041,
      "iment": 4042,
      "Ġdoub": 4043,
      "ªå¼ıä¼ļç¤¾": 4044,
      "ä¸İ": 4045,
      "Ġbes": 4046,
      "amily": 4047,
      "çģ«": 4048,
      "liche": 4049,
      "éĸ¢éĢ£ãģ®ãĤ¹ãĤ¿ãĥĸ": 4050,
      "ube": 4051,
      "ãĥ¼ãĥĢ": 4052,
      "ierung": 4053,
      "hren": 4054,
      "åľ°æĸ¹": 4055,
      "å°¾": 4056,
      "Ġsources": 4057,
      "ison": 4058,
      "ç¤¾ä¼ļ": 4059,
      "ãĥ´ãĤ§": 4060,
      "iod": 4061,
      "ĠPrem": 4062,
      "war": 4063,
      "ola": 4064,
      "bar": 4065,
      "ĠMichael": 4066,
      "Ġ'": 4067,
      "ves": 4068,
      "çĽ£çĿ£": 4069,
      "ih": 4070,
      "meistersch": 4071,
      "Ġgew": 4072,
      "IC": 4073,
      "2012": 4074,
      "ĠDeutsch": 4075,
      "98": 4076,
      "Ġä½Ĳ": 4077,
      "åĲ«": 4078,
      "ĠWil": 4079,
      "çļĩ": 4080,
      "ĠTeam": 4081,
      "ÙĨÙĩ": 4082,
      "Ãªme": 4083,
      "ãĥ©ãĥ³": 4084,
      "Ġ%": 4085,
      "lege": 4086,
      "æĨ": 4087,
      "Ġ}": 4088,
      "IS": 4089,
      "Ġont": 4090,
      "math": 4091,
      "Ġdesign": 4092,
      "äºĭæ¥Ń": 4093,
      "Ġsk": 4094,
      "ä¸ģ": 4095,
      "Ø¢": 4096,
      "Ġuse": 4097,
      "Ġbecame": 4098,
      "éĤ¦": 4099,
      "ĠBerlin": 4100,
      "Ġbest": 4101,
      "athl": 4102,
      "è¿°": 4103,
      "ĠFebruary": 4104,
      "ãĥĪãĥª": 4105,
      "«çĶ»": 4106,
      "OC": 4107,
      "éĹĺ": 4108,
      "Ġmain": 4109,
      "Ġinv": 4110,
      "ãĥ³ãĥĳ": 4111,
      "acter": 4112,
      "vir": 4113,
      "ĠOne": 4114,
      "ä¾¿": 4115,
      "Ġfound": 4116,
      "Ġboth": 4117,
      "ĠåĲį": 4118,
      "ache": 4119,
      "ľŁ": 4120,
      "ĠãĥĬ": 4121,
      "çĻ¾": 4122,
      "ĠdÃ©c": 4123,
      "Ġtourn": 4124,
      "èĲ½": 4125,
      "ãĤ»ãĥ³ãĤ¿ãĥ¼": 4126,
      "ãĤ·ãĥ¼ãĤº": 4127,
      "ĠåıĤ": 4128,
      "éĸĭå§ĭ": 4129,
      "Ġåº": 4130,
      "åĪĬ": 4131,
      "ãĤ¹ãĤ³": 4132,
      "ĠAfter": 4133,
      "ĠParty": 4134,
      "æµ·éģĵ": 4135,
      "Ã¼d": 4136,
      "Ġåħ¨": 4137,
      "å°Ĩ": 4138,
      "åĥı": 4139,
      "çħ": 4140,
      "Ġbel": 4141,
      "Ġç«": 4142,
      "ãĥ¬ãĥ¼ãĥľãĥ¼ãĥ«": 4143,
      "Ġmemb": 4144,
      "ĠLine": 4145,
      "Ġeng": 4146,
      "ĠæĪ": 4147,
      "éģ¸æīĭæ¨©å¤§ä¼ļ": 4148,
      "å¥½": 4149,
      "ality": 4150,
      "iographie": 4151,
      "ÙĶ": 4152,
      "ç±į": 4153,
      "ĠBur": 4154,
      "ĠFuÃŁball": 4155,
      "èģĸ": 4156,
      "è«¸": 4157,
      "sten": 4158,
      "ĠMot": 4159,
      "ĠMex": 4160,
      "çİī": 4161,
      "ep": 4162,
      "56": 4163,
      "å¤ļãģı": 4164,
      "æİĪ": 4165,
      "ĠØ§ÙĨÚ¯ÙĦÛĮØ³ÛĮ": 4166,
      "useum": 4167,
      "æł¹": 4168,
      "rian": 4169,
      "nis": 4170,
      "īį": 4171,
      "ÛĮÙĦÙħ": 4172,
      "ights": 4173,
      "Ġå¤©": 4174,
      "ãģ£ãģ¦ãģĦãģŁ": 4175,
      "å¤ªéĥİ": 4176,
      "ç¶Ļ": 4177,
      "ĠJac": 4178,
      "ides": 4179,
      "orte": 4180,
      "ãģĹãģĭãģĹ": 4181,
      "Ģ¬": 4182,
      "äº¤éĢļ": 4183,
      "EFA": 4184,
      "Ġ50": 4185,
      "Ġ1970": 4186,
      "Ġdel": 4187,
      "Ġlar": 4188,
      "åħ«": 4189,
      "CC": 4190,
      "åłĤ": 4191,
      "ÙĪØ²": 4192,
      "ãģ¸ãģ®": 4193,
      "Ġcontin": 4194,
      "unicip": 4195,
      "ãĤģãģ¦": 4196,
      "ken": 4197,
      "Ġãĥ«": 4198,
      "ural": 4199,
      "ĠOs": 4200,
      "åĳĬ": 4201,
      "Ġwon": 4202,
      "ÙĪØ±ÛĮ": 4203,
      "aster": 4204,
      "ussi": 4205,
      "leyball": 4206,
      "arth": 4207,
      "ĠAp": 4208,
      "è¶³": 4209,
      "ĠLu": 4210,
      "ĠBelg": 4211,
      "ĠIslam": 4212,
      "ingen": 4213,
      "ĠOl": 4214,
      "å±ķ": 4215,
      "æ°ı": 4216,
      "ĦĽ": 4217,
      "Ġdep": 4218,
      "ãĥĲãĤ¹": 4219,
      "gent": 4220,
      "ãģ®éģ¸æīĭ": 4221,
      "æĦŁ": 4222,
      "ç§Ģ": 4223,
      "ially": 4224,
      "ãĥ³ãĥĩãĤ£": 4225,
      "ication": 4226,
      "Ġæ¨": 4227,
      "ãĤ¹ãĤ±ãĥĥãĥĪãĥľãĥ¼ãĥ«": 4228,
      "Ġmany": 4229,
      "ĠamÃ©r": 4230,
      "ĠMat": 4231,
      "ĠÙģØ±": 4232,
      "ĠPortug": 4233,
      "reg": 4234,
      "ender": 4235,
      "ÙĪÚ©": 4236,
      "Ġtechn": 4237,
      "æĸ°èģŀ": 4238,
      "Ġline": 4239,
      "Ġcre": 4240,
      "æĽ´": 4241,
      "ta": 4242,
      "ãģĦãĤĭ": 4243,
      "ĠFeder": 4244,
      "å¹¸": 4245,
      "ych": 4246,
      "ala": 4247,
      "ãĤĪãģĨãģ«": 4248,
      "Ġbefore": 4249,
      "ĠPan": 4250,
      "ãģĤãģ£ãģŁ": 4251,
      "isation": 4252,
      "Ġç§": 4253,
      "ä¸ŃåŃ¦æł¡": 4254,
      "çµĮæ¸Ī": 4255,
      "ãĤ¢ãĤ¤": 4256,
      "ensch": 4257,
      "yth": 4258,
      "ĠsiÃ¨cle": 4259,
      "ä¾ĭ": 4260,
      "91": 4261,
      "go": 4262,
      "å¾Įãģ«": 4263,
      "Ġ1987": 4264,
      "ÙĨÛĮ": 4265,
      "ĠCoupe": 4266,
      "ãģ®å¥³": 4267,
      "ãĤŃãĥ¼": 4268,
      "ãĥ³ãĥĸ": 4269,
      "ĠThom": 4270,
      "ä¸»ç¾©": 4271,
      "Ġpartic": 4272,
      "Ã¤hr": 4273,
      "ically": 4274,
      "åĽ½ãģ®": 4275,
      "ãĥĹãĥ¬": 4276,
      "æ£®": 4277,
      "ãĥģãĤ§": 4278,
      "Ġresult": 4279,
      "ãĤĪãģĨãģª": 4280,
      "Ġéĩĳ": 4281,
      "å§Ķåĵ¡ä¼ļ": 4282,
      "mannschaft": 4283,
      "volution": 4284,
      "ĠLang": 4285,
      "åĨĨ": 4286,
      "ĠFra": 4287,
      "æ³ī": 4288,
      "ãģĻãĤĭãģĵãģ¨": 4289,
      "Ġèĭ": 4290,
      "Ġmilit": 4291,
      "ä¸¸": 4292,
      "Ġæľ¬": 4293,
      "ĠWal": 4294,
      "æĲ": 4295,
      "undes": 4296,
      "è¾º": 4297,
      "åĦªåĭĿ": 4298,
      "åģ¥": 4299,
      "42": 4300,
      "br": 4301,
      "ãĤ¤ãĤ¿": 4302,
      "æľª": 4303,
      "lande": 4304,
      "ĠKl": 4305,
      "ĠTourn": 4306,
      "back": 4307,
      "Ġseine": 4308,
      "ĠãĤ¸ãĥ£": 4309,
      "Ã¤nd": 4310,
      "ĠDivision": 4311,
      "èĸ¬": 4312,
      "åĩºåł´": 4313,
      "åĮĹäº¬": 4314,
      "å¹´ãĥŃãĥ³ãĥī": 4315,
      ".,": 4316,
      "åħĲ": 4317,
      "Ġcompet": 4318,
      "ideo": 4319,
      "èĪŀ": 4320,
      "ĠSol": 4321,
      "Ġ1956": 4322,
      "Ġgegen": 4323,
      "ateur": 4324,
      "ĠCharles": 4325,
      "ãĥĹãĥª": 4326,
      "¦ÛĮ": 4327,
      "ç¾¤": 4328,
      "ĠEast": 4329,
      "ĠAv": 4330,
      "ona": 4331,
      "Europe": 4332,
      "ĠMag": 4333,
      "ĠGeorge": 4334,
      "æľ«": 4335,
      "aking": 4336,
      "OR": 4337,
      "med": 4338,
      "Ġsm": 4339,
      "å¹´ãĥªãĤªãĥĩãĤ¸ãĥ£ãĥįãĤ¤ãĥŃ": 4340,
      "ãĤ¸ãĥ£ãĥ¼": 4341,
      "onne": 4342,
      "ĠçŁ³": 4343,
      "åľ°åŁŁ": 4344,
      "urt": 4345,
      "2020": 4346,
      "Ġprofess": 4347,
      "ãģķãĤĵ": 4348,
      "uer": 4349,
      "ãĥĲãĥ«": 4350,
      "ãĥ¼ãĥĨãĤ£": 4351,
      "Ġperm": 4352,
      "ĠgÃ©n": 4353,
      "åĩºæ¼Ķ": 4354,
      "ful": 4355,
      "ãĥ©ãĤ¹": 4356,
      "fÃ©rences": 4357,
      "à¸": 4358,
      "ãĤµãĤ¤ãĥĪ": 4359,
      "Ġwie": 4360,
      "ÃŁen": 4361,
      "ãĥ³ãĥŀ": 4362,
      "ĠØ¬Ø§Ø¯Ùĩ": 4363,
      "iga": 4364,
      "ND": 4365,
      "ç¨ĭ": 4366,
      "ief": 4367,
      "ils": 4368,
      "ãĥĥãĤ·ãĥ¥": 4369,
      "Ġborn": 4370,
      "Ø¨Ø±": 4371,
      "èĪĪ": 4372,
      "æıĲ": 4373,
      "Ġwill": 4374,
      "æ¸ħ": 4375,
      "itu": 4376,
      "ikan": 4377,
      "Ġposs": 4378,
      "ired": 4379,
      "Ġãĥĵ": 4380,
      "Le": 4381,
      "æĥ³": 4382,
      "ãĤħ": 4383,
      "enc": 4384,
      "ä¹Ł": 4385,
      "ĠMin": 4386,
      "inger": 4387,
      "areer": 4388,
      "ference": 4389,
      "!!": 4390,
      "Ġlanguages": 4391,
      "Ġ28": 4392,
      "ared": 4393,
      "åıĸãĤĬ": 4394,
      "ugby": 4395,
      "åĶ": 4396,
      "ãĥĥãĥĳ": 4397,
      "å®Į": 4398,
      "92": 4399,
      "Ġopen": 4400,
      "ĠChe": 4401,
      "èħ": 4402,
      "ierte": 4403,
      "ĠPlay": 4404,
      "ordin": 4405,
      "ota": 4406,
      "ĠExternal": 4407,
      "):": 4408,
      "ands": 4409,
      "åĥį": 4410,
      "Ġèĩ": 4411,
      "è£ľ": 4412,
      "éħ¸": 4413,
      "ards": 4414,
      "é³": 4415,
      "ĠIntern": 4416,
      "ourg": 4417,
      "æİ¥": 4418,
      "Ġste": 4419,
      "æĭħ": 4420,
      "Ã¨me": 4421,
      "ĠCarl": 4422,
      "Ġsous": 4423,
      "åĲįåı¤å±ĭå¸Ĥ": 4424,
      "duction": 4425,
      "è±¡": 4426,
      "pon": 4427,
      "round": 4428,
      "ĠPress": 4429,
      "estern": 4430,
      "ĠJose": 4431,
      "rown": 4432,
      "åĽ³æĽ¸": 4433,
      "Ġport": 4434,
      "èªĮ": 4435,
      "çĪ¶": 4436,
      "ĠProgr": 4437,
      "Ġ187": 4438,
      "Ġworld": 4439,
      "ova": 4440,
      "ĠAthletics": 4441,
      "stell": 4442,
      "Û²": 4443,
      "ĠInstit": 4444,
      "iÄĩ": 4445,
      "Ø°": 4446,
      "ournal": 4447,
      "ĠAu": 4448,
      "jet": 4449,
      "ÙĨØ§Ø³": 4450,
      "ope": 4451,
      "Am": 4452,
      "ãģ¨åĳ¼": 4453,
      "åİ»": 4454,
      "ĠÏ": 4455,
      "2011": 4456,
      "Ġesp": 4457,
      "Ġhab": 4458,
      "é®": 4459,
      "Ġæ¼": 4460,
      "ĠSpan": 4461,
      "ĠCong": 4462,
      "ray": 4463,
      "net": 4464,
      "Ġcette": 4465,
      "ãĥ©ãĤ°": 4466,
      "links": 4467,
      "Ġaussi": 4468,
      "ãĥ³ãĥĵ": 4469,
      "ç¥Ń": 4470,
      "ç¢º": 4471,
      "incip": 4472,
      "sk": 4473,
      "å¤ľ": 4474,
      "omot": 4475,
      "andball": 4476,
      "arb": 4477,
      "å¤§éĺª": 4478,
      "è©ķ": 4479,
      "Ġperform": 4480,
      "ĠRel": 4481,
      "ĠIsland": 4482,
      "iden": 4483,
      "åıĤåĬł": 4484,
      "ditional": 4485,
      "oung": 4486,
      "Ġmusic": 4487,
      "æĹ©": 4488,
      "ush": 4489,
      "Ġãģ¯": 4490,
      "ãĥ¼ãĤŃ": 4491,
      "ĠRiver": 4492,
      "Ġnov": 4493,
      "hrt": 4494,
      "ãĥĲãĤ¤": 4495,
      "ĠKon": 4496,
      "å¼µ": 4497,
      "ridge": 4498,
      "nes": 4499,
      "AM": 4500,
      "å¾©": 4501,
      "2010": 4502,
      "ãģĪãģŁ": 4503,
      "65": 4504,
      "Ġbr": 4505,
      "34": 4506,
      "ĠSystem": 4507,
      "åĢī": 4508,
      "ç¹Ķ": 4509,
      "è¨ĺéĮ²": 4510,
      "osph": 4511,
      "ãĤ¢ãĥ³": 4512,
      "ĠHD": 4513,
      "astraÃŁe": 4514,
      "Ġcomb": 4515,
      "ida": 4516,
      "å®Ī": 4517,
      "39": 4518,
      "ĠCentral": 4519,
      "ĠØ¦ÛĮ": 4520,
      "ĠTri": 4521,
      "è©ŀ": 4522,
      "è©¦åĲĪ": 4523,
      "å®Ĺ": 4524,
      "Ġelle": 4525,
      "Ġ1986": 4526,
      "çķĻ": 4527,
      "çĴ°": 4528,
      "é¦ĸ": 4529,
      "ĠStreet": 4530,
      "Ġback": 4531,
      "å¹´ãĥŃãĥ³ãĥīãĥ³ãĤªãĥªãĥ³ãĥĶãĥĥãĤ¯ãģ®": 4532,
      "idian": 4533,
      "Ġtext": 4534,
      "Ã©ro": 4535,
      "è§Ĵ": 4536,
      "åĿĤ": 4537,
      "ä»¤": 4538,
      "pis": 4539,
      "keit": 4540,
      "ãĥ¼ãĤ¿ãĥ¼": 4541,
      "ĠPo": 4542,
      "ĠAsian": 4543,
      "ãģ®ãģ¿": 4544,
      "32": 4545,
      "gt": 4546,
      "Ġcalled": 4547,
      "ified": 4548,
      "ternes": 4549,
      "apt": 4550,
      "Ġrest": 4551,
      "su": 4552,
      "å¹´ãĥªãĤªãĥĩãĤ¸ãĥ£ãĥįãĤ¤ãĥŃãĤªãĥªãĥ³ãĥĶãĥĥãĤ¯ãģ®": 4553,
      "ãĥĪãĥ«": 4554,
      "alth": 4555,
      "Ġtri": 4556,
      "utes": 4557,
      "tein": 4558,
      "ĠDen": 4559,
      "cted": 4560,
      "ombre": 4561,
      "ĠEuropastraÃŁe": 4562,
      "ãĤ¾": 4563,
      "present": 4564,
      "ĠSeries": 4565,
      "åħ¨åĽ½": 4566,
      "Ġlors": 4567,
      "Ġlocal": 4568,
      "Ġcur": 4569,
      "Ġç·": 4570,
      "ĠWelt": 4571,
      "Ġnur": 4572,
      "Ġsow": 4573,
      "ĠFranc": 4574,
      "ĠØº": 4575,
      "Ġsame": 4576,
      "Ġvom": 4577,
      "Ã©ma": 4578,
      "ĠLouis": 4579,
      "âĢĿ": 4580,
      "ãģ®æĽ": 4581,
      "ize": 4582,
      "æºĢ": 4583,
      "Ġpremier": 4584,
      "é»Ĵ": 4585,
      "æĶ»": 4586,
      "ĠrÃ©g": 4587,
      "uring": 4588,
      "ĠBat": 4589,
      "ãĥļãĥ¼ãĤ¸": 4590,
      "ined": 4591,
      "Ġ1952": 4592,
      "Ġrecord": 4593,
      "ãĤ¤ãĤ®ãĥªãĤ¹": 4594,
      "illa": 4595,
      "heim": 4596,
      "Ġche": 4597,
      "æĺł": 4598,
      "Ġãĥ¦": 4599,
      "ãĥŀãĤ¤": 4600,
      "èĻ": 4601,
      "ãĥ³ãĥ©": 4602,
      "ĠChampionnats": 4603,
      "val": 4604,
      "ãģ®å½": 4605,
      "ãĤ¯ãĥ©ãĥĸ": 4606,
      "åĭ¢": 4607,
      "otal": 4608,
      "ga": 4609,
      "åĭķè»Ĭ": 4610,
      "HK": 4611,
      "ãģ«åħ¥": 4612,
      "ĠMos": 4613,
      "ĠØ¢ÙĦ": 4614,
      "49": 4615,
      "ĠSu": 4616,
      "ãģ¨åĲĮ": 4617,
      "ika": 4618,
      "åįĺ": 4619,
      "ĠCaliforn": 4620,
      "å¸¯": 4621,
      "æĥħåł±": 4622,
      "ored": 4623,
      "é®®": 4624,
      "æ¹¾": 4625,
      "dh": 4626,
      "ĠThomas": 4627,
      "ĠAwards": 4628,
      "ville": 4629,
      "åŃ¦éĥ¨": 4630,
      "å£°": 4631,
      "ĠPeter": 4632,
      "ĠNBA": 4633,
      "olit": 4634,
      "ĠÙħØ¯": 4635,
      "Ġ1948": 4636,
      "ãĤ¤ãĥ³ãĤ¿": 4637,
      "ca": 4638,
      "ĠRa": 4639,
      "ĠArab": 4640,
      "ãĥ«ãĥī": 4641,
      "è²¡": 4642,
      "ĠFer": 4643,
      "ç¸¾": 4644,
      "è¿½": 4645,
      "ager": 4646,
      "Ġpoints": 4647,
      "å¢ĥ": 4648,
      "hre": 4649,
      "ually": 4650,
      "Ġsl": 4651,
      "ãĥ¼ãĥĪãĥ«": 4652,
      "Ø¨Ùĩ": 4653,
      "itte": 4654,
      "ãģĵãģĨ": 4655,
      "Ġprop": 4656,
      "less": 4657,
      "da": 4658,
      "ĠMartin": 4659,
      "ctions": 4660,
      "Ðµ": 4661,
      "ãĤ¹ãĤ«": 4662,
      "Ġplayed": 4663,
      "ĠçĶ°": 4664,
      "work": 4665,
      "ĠFlor": 4666,
      "alog": 4667,
      "ĠAnn": 4668,
      "view": 4669,
      "Ġsince": 4670,
      "ĠAuf": 4671,
      "esearch": 4672,
      "ĠRussian": 4673,
      "iy": 4674,
      "ima": 4675,
      "è¦ĸ": 4676,
      "Ġda": 4677,
      "£°": 4678,
      "»t": 4679,
      "iven": 4680,
      "Ġpo": 4681,
      "ĠGeme": 4682,
      "duced": 4683,
      "å½±": 4684,
      "Ġeffect": 4685,
      "ĠØ³Ø§ÙĦ": 4686,
      "ĠZeit": 4687,
      "ĠCop": 4688,
      "ĠMill": 4689,
      "ĠGree": 4690,
      "å®ĩ": 4691,
      "ĠSpiel": 4692,
      "æ¢": 4693,
      "Ġthese": 4694,
      "çĦ¶": 4695,
      "çł´": 4696,
      "ĠBest": 4697,
      "imil": 4698,
      "atre": 4699,
      "bol": 4700,
      "sel": 4701,
      "ĠBN": 4702,
      "ĠBlack": 4703,
      "ãģªãģĮ": 4704,
      "gest": 4705,
      "ĠHong": 4706,
      "Ġconc": 4707,
      "Ġ1985": 4708,
      "ĠSong": 4709,
      "Ġtrois": 4710,
      "Ġ29": 4711,
      "Ġ40": 4712,
      "éŁ¿": 4713,
      "ĠChristian": 4714,
      "Ġexternes": 4715,
      "ãģķãĤĮãģ¦": 4716,
      "iving": 4717,
      "ymn": 4718,
      "ãĤĮãģ°": 4719,
      "ä¸Ńå¤®": 4720,
      "ĠIr": 4721,
      "ãģ¦ãģĦãģªãģĦ": 4722,
      "ĠJud": 4723,
      "Ġgovernment": 4724,
      "ĠAst": 4725,
      "41": 4726,
      "ĠåĽ½éīĦãĤ¿ãĤŃ": 4727,
      "æ¯į": 4728,
      "Ġoriginal": 4729,
      "ãĤ¤ãĤº": 4730,
      "ä½ľæĽ²": 4731,
      "Ġä¸Ģ": 4732,
      "ĠãĤ¬": 4733,
      "ĠFe": 4734,
      "ĠYe": 4735,
      "Ã©min": 4736,
      "ĠTim": 4737,
      "aissance": 4738,
      "ÙħØ±ÛĮÚ©": 4739,
      "ãĥ¥ãĤ¢": 4740,
      "field": 4741,
      "ãĥªãĥ³ãĤ°": 4742,
      "Ġäº¬": 4743,
      "peed": 4744,
      "ãģ¾ãĤĮ": 4745,
      "atic": 4746,
      "66": 4747,
      "æĸĩçĮ®": 4748,
      "ĠElle": 4749,
      "ĠGreat": 4750,
      "ita": 4751,
      "ĠTw": 4752,
      "ivid": 4753,
      "oo": 4754,
      "çĻĤ": 4755,
      "ãĤīãĤĮãģ¦ãģĦãĤĭ": 4756,
      "ĠSur": 4757,
      "äºĨ": 4758,
      "stan": 4759,
      "æ©Łéĸ¢": 4760,
      "Ġfre": 4761,
      "å¹´åĮĹäº¬": 4762,
      "ĠPres": 4763,
      "ĠPlatz": 4764,
      "éĸ¢éĢ£ãģ®ãĤ¹ãĤ¿ãĥĸéłħçĽ®": 4765,
      "Ġcamp": 4766,
      "rei": 4767,
      "Ø§Ø®": 4768,
      "æ¶Ī": 4769,
      "IV": 4770,
      "DB": 4771,
      "ä¸ŃåĽ½": 4772,
      "ĠNotes": 4773,
      "ift": 4774,
      "veral": 4775,
      "æĪ¦äºī": 4776,
      "ĠæĦĽ": 4777,
      "ĠTV": 4778,
      "çķªåı·": 4779,
      "ĠEst": 4780,
      "amen": 4781,
      "Ġconstru": 4782,
      "è¨¼": 4783,
      "ĠAirport": 4784,
      "ĠMinist": 4785,
      "Ð½": 4786,
      "Ġbro": 4787,
      "Ġæķ": 4788,
      "æ®ĭ": 4789,
      "ĠEinz": 4790,
      "ĠPubl": 4791,
      "ĠVIAF": 4792,
      "orf": 4793,
      "obile": 4794,
      "æ¤ľ": 4795,
      "åł´åĲĪ": 4796,
      "ĠKn": 4797,
      "ationalmannschaft": 4798,
      "ĠRichard": 4799,
      "acht": 4800,
      "èĪ¬": 4801,
      "Ġestabl": 4802,
      "utz": 4803,
      "ÙĨØ§ÙĨ": 4804,
      "Sch": 4805,
      "å®Ŀ": 4806,
      "ĠAct": 4807,
      "ĠØ¢ÙħØ±ÛĮÚ©": 4808,
      "ĠUEFA": 4809,
      "Ġpays": 4810,
      "Ġpublic": 4811,
      "Ġvis": 4812,
      "Ú¯ÛĮ": 4813,
      "icain": 4814,
      "ĠãĤ¢ãĥ¡ãĥªãĤ«åĲĪè¡ĨåĽ½": 4815,
      "wick": 4816,
      "å½¦": 4817,
      "ams": 4818,
      "ĠtÃ©l": 4819,
      "ĠKorea": 4820,
      "Ġstate": 4821,
      "ä¾¡": 4822,
      "è²´": 4823,
      "å¤±": 4824,
      "è¡Ģ": 4825,
      "alls": 4826,
      "çĢ¬": 4827,
      "ãĥĩãĥ¥": 4828,
      "2021": 4829,
      "ĠAcc": 4830,
      "tain": 4831,
      "ä¸ģçĽ®": 4832,
      "ascul": 4833,
      "ãĥĩãĤ£ãĤ¢": 4834,
      "ĠBre": 4835,
      "Å¡": 4836,
      "oud": 4837,
      "Ġmo": 4838,
      "iol": 4839,
      "ãĥ³ãĤ´": 4840,
      "Ġcert": 4841,
      "Ġmajor": 4842,
      "wischen": 4843,
      "Ġãĥ¯": 4844,
      "Ġfem": 4845,
      "ç§ĳåŃ¦": 4846,
      "ĠrÃ©s": 4847,
      "Ġset": 4848,
      "Ġæ°´": 4849,
      "Ġå¹³": 4850,
      "Ġequ": 4851,
      "Ġlist": 4852,
      "ĠGeneral": 4853,
      "po": 4854,
      "æµ¦": 4855,
      "Ġsupport": 4856,
      "Ġcou": 4857,
      "Ġimport": 4858,
      "ĠInfobox": 4859,
      "ĠBill": 4860,
      "ãģ®ãĤ¢": 4861,
      "éŁĵ": 4862,
      "US": 4863,
      "Ġreleased": 4864,
      "Ġrelations": 4865,
      "ãĥ³ãĤŃ": 4866,
      "igure": 4867,
      "è¾²": 4868,
      "ĠBasketball": 4869,
      "ãģ®å¤§": 4870,
      "rÃ¤": 4871,
      "ãģ¡ãĤĥ": 4872,
      "Ġå®®": 4873,
      "ªæµľ": 4874,
      "æľĿé®®": 4875,
      "æĸŃ": 4876,
      "ĠAmerica": 4877,
      "ÛĮÙĦØ§Ø¯ÛĮ": 4878,
      "è¨Ńç«ĭ": 4879,
      "Ġuntil": 4880,
      "ĠãĥĨãĥ¬ãĥĵ": 4881,
      "æĿĲ": 4882,
      "ãģįãģŁ": 4883,
      "hrer": 4884,
      "zeit": 4885,
      "æĵ": 4886,
      "iction": 4887,
      "¹¿": 4888,
      "ãģ®æĺ": 4889,
      "Ø§Ø¹": 4890,
      "æ¥µ": 4891,
      "06": 4892,
      "ĠLuc": 4893,
      "ãģ¥": 4894,
      "ãģ¼": 4895,
      "¦Ĥè¦ģ": 4896,
      "Ġ1983": 4897,
      "Ġfun": 4898,
      "ãĤ¸ãĥ§ãĥ³": 4899,
      "ĠØ§Ùĩ": 4900,
      "è¶Ĭ": 4901,
      "lemagne": 4902,
      "è¡Ĺ": 4903,
      "å¯Į": 4904,
      "ĠãĤ¸ãĥ§": 4905,
      "orks": 4906,
      "odes": 4907,
      "Ø²ÛĮ": 4908,
      "å¢Ĺ": 4909,
      "æĪ¦ãģĦ": 4910,
      "ãĥ©ãĥł": 4911,
      "Ú©ÙĨ": 4912,
      "ãģ®ãģĤãĤĭ": 4913,
      "ãģ®æĶ¿": 4914,
      "Ġsix": 4915,
      "ĠMark": 4916,
      "Ġfollowing": 4917,
      "åħ¬åľĴ": 4918,
      "aka": 4919,
      "ĠÚĺ": 4920,
      "å¾¡": 4921,
      "æ¿": 4922,
      "åĽ³æĽ¸é¤¨": 4923,
      "Ġformer": 4924,
      "illet": 4925,
      "ãĥ¬ãĤ¯": 4926,
      "ä»Ĭ": 4927,
      "ĠNav": 4928,
      "è¨³": 4929,
      "NA": 4930,
      "2009": 4931,
      "Fran": 4932,
      "ãģ®æĻĤ": 4933,
      "irl": 4934,
      "Ø¶": 4935,
      "Ġmedal": 4936,
      "Ġarch": 4937,
      "ãģ¨ãģªãĤĬ": 4938,
      "æ¸¡": 4939,
      "ãĤ¹ãĥĨãĥł": 4940,
      "éģł": 4941,
      "75": 4942,
      "Ġcompos": 4943,
      "ĠVo": 4944,
      "ãĥ³ãĥĹãĥª": 4945,
      "å¾³": 4946,
      "ãĥ¼ãĤ¬": 4947,
      "İŁ": 4948,
      "ãĥ¢ãĥ³": 4949,
      "ãĤ·ãĥ¼ãĤºãĥ³": 4950,
      "2008": 4951,
      "oÃ»t": 4952,
      "ĠVir": 4953,
      "ĠBor": 4954,
      "Ã®": 4955,
      "De": 4956,
      "ĠCe": 4957,
      "ĠØµ": 4958,
      "Ġ_{": 4959,
      "å¹´ãģĭãĤī": 4960,
      "ani": 4961,
      "ape": 4962,
      "ãĥ³ãĥĨãĤ£": 4963,
      "ads": 4964,
      "NI": 4965,
      "ç©į": 4966,
      "unk": 4967,
      "ĠHouse": 4968,
      "Ġrece": 4969,
      "éļİ": 4970,
      "Ã©ration": 4971,
      "ĠÙĩÙħ": 4972,
      "Ġappro": 4973,
      "ĠfÃ©min": 4974,
      "Ġleur": 4975,
      "å¸°": 4976,
      "Ġmeridian": 4977,
      "ĠUr": 4978,
      "ÙĨÙĩØ§Ø±": 4979,
      "01": 4980,
      "åįĴ": 4981,
      "ĠRoyal": 4982,
      "ãģĭãģ¤": 4983,
      "è¨ĺå¿µ": 4984,
      "ĠCro": 4985,
      "ĠCenter": 4986,
      "ãĥĸãĥª": 4987,
      "Ġmascul": 4988,
      "æĺİæ²»": 4989,
      "04": 4990,
      "azine": 4991,
      "Ø§ÙĦÙĨÙĩØ§Ø±": 4992,
      "ĠèĬ": 4993,
      "get": 4994,
      "ende": 4995,
      "ĠChurch": 4996,
      "itÃ¤t": 4997,
      "ĠMann": 4998,
      "ography": 4999,
      "ĠGer": 5000,
      "elles": 5001,
      "è¼ª": 5002,
      "Ġä¼Ĭ": 5003,
      "å¹´åĮĹäº¬ãĤªãĥªãĥ³ãĥĶãĥĥãĤ¯ãģ®": 5004,
      "Ġany": 5005,
      "ĠWeblinks": 5006,
      "levision": 5007,
      "èªŃ": 5008,
      "ĠFirst": 5009,
      "ody": 5010,
      "ĠBi": 5011,
      "æ¯Ķ": 5012,
      "ãĥĵãĥ¼": 5013,
      "ĠÙĨØµÙģ": 5014,
      "ĠGi": 5015,
      "åĢĭ": 5016,
      "Ġ1982": 5017,
      "zil": 5018,
      "uge": 5019,
      "ãĥ¼ãĥį": 5020,
      "ĠLos": 5021,
      "Ġ1936": 5022,
      "Ġdi": 5023,
      "åħ¬å¼ı": 5024,
      "ops": 5025,
      "ãģ®æŃ´åı²": 5026,
      "Ġnorth": 5027,
      "ĠØ§Ùħ": 5028,
      "ĠRh": 5029,
      "ware": 5030,
      "AE": 5031,
      "lt": 5032,
      "eden": 5033,
      "ĠåĲī": 5034,
      "ji": 5035,
      "odel": 5036,
      "insi": 5037,
      "éĿŀ": 5038,
      "ĠCast": 5039,
      "ĠåıĤèĢĥ": 5040,
      "ĠãĤ¦ãĤ£ãĤŃ": 5041,
      "Ġparticip": 5042,
      "ãĢģãĢİ": 5043,
      "ãģ®ãģ¯": 5044,
      "ä¸ĥ": 5045,
      "Ġmult": 5046,
      "ĠDu": 5047,
      "ãĤ³ãĥ¼ãĥī": 5048,
      "km": 5049,
      "å¤ı": 5050,
      "Ġtop": 5051,
      "Ġke": 5052,
      "ource": 5053,
      "éĿ©": 5054,
      "Ġuns": 5055,
      "æ°¸": 5056,
      "ĠStar": 5057,
      "ĠgÃ©": 5058,
      "sych": 5059,
      "Ġvo": 5060,
      "ĠCour": 5061,
      "Ġcontaining": 5062,
      "FL": 5063,
      "ĠSee": 5064,
      "Ġtour": 5065,
      "ãĥ³ãĤ«": 5066,
      "osoph": 5067,
      "Ġ1979": 5068,
      "ãĥĬãĥ¼": 5069,
      "ĠØ¯ÛĮ": 5070,
      "ĠSports": 5071,
      "Ġair": 5072,
      "ãĤ¢ãĤ¸ãĤ¢": 5073,
      "ĠStud": 5074,
      "Ġsyn": 5075,
      "annt": 5076,
      "akes": 5077,
      "ĠKh": 5078,
      "å®Ļ": 5079,
      "ĠØ¨Ø§Ø´": 5080,
      "awa": 5081,
      "ci": 5082,
      "æľĽ": 5083,
      "æŃ©": 5084,
      "ãĥ«ãĥķ": 5085,
      "ãĤ¢ãĥ¡ãĥªãĤ«åĲĪè¡ĨåĽ½": 5086,
      "Ġgra": 5087,
      "ĠTok": 5088,
      "yo": 5089,
      "Ġcontre": 5090,
      "ç´°": 5091,
      "ä»ķ": 5092,
      "ĠDies": 5093,
      "ĠVerein": 5094,
      "tens": 5095,
      "oto": 5096,
      "ril": 5097,
      "ĠTime": 5098,
      "depend": 5099,
      "ĠRob": 5100,
      "ĠÂ»,": 5101,
      "ĠRos": 5102,
      "ãģ®åĨ": 5103,
      "ĠIndia": 5104,
      "ĠÃ©gal": 5105,
      "ĠèĹ¤": 5106,
      "ãĤ¹ãĥĨãĤ£": 5107,
      "åº·": 5108,
      "Ã¨ne": 5109,
      "åīµ": 5110,
      "ĠåŃ¦": 5111,
      "ĠTournoi": 5112,
      "Ġsel": 5113,
      "iana": 5114,
      "ĠKong": 5115,
      "eding": 5116,
      "Ġhockey": 5117,
      "ãģłãģĳ": 5118,
      "æĪ¿": 5119,
      "Ġmond": 5120,
      "Ã©rique": 5121,
      "ths": 5122,
      "ĠCommun": 5123,
      "atin": 5124,
      "ãĥ¡ãĥ³ãĥĪ": 5125,
      "ĠMarc": 5126,
      "ĠCons": 5127,
      "onom": 5128,
      "Ī´": 5129,
      "iang": 5130,
      "aces": 5131,
      "Ġ35": 5132,
      "æľĿæĹ¥": 5133,
      "Ġbeg": 5134,
      "ĠCollege": 5135,
      "ĠØ¯Ø§Ø±Ø§ÛĮ": 5136,
      "è¨ĪçĶ»": 5137,
      "2022": 5138,
      "ĠHistor": 5139,
      "Ġpost": 5140,
      "anda": 5141,
      "Ġaber": 5142,
      "aim": 5143,
      "ĠmÃ©d": 5144,
      "05": 5145,
      "Ġpopulation": 5146,
      "Ġfut": 5147,
      "Ġmillion": 5148,
      "ĠBul": 5149,
      "Ġsouth": 5150,
      "éĢ£éĤ¦": 5151,
      "Ġdue": 5152,
      "rande": 5153,
      "£®": 5154,
      "å¹´åº¦": 5155,
      "ĠJos": 5156,
      "38": 5157,
      "spieler": 5158,
      "bi": 5159,
      "ĠMid": 5160,
      "Ġfamily": 5161,
      "aient": 5162,
      "ĠNations": 5163,
      "Ġcity": 5164,
      "ãĥĻãĥ¼ãĤ¹ãĥľãĥ¼ãĥ«": 5165,
      "opp": 5166,
      "åĪĨé¡ŀ": 5167,
      "Ġnom": 5168,
      "Ġeach": 5169,
      "ÑĢ": 5170,
      "unt": 5171,
      "ĠMo": 5172,
      "ĠKir": 5173,
      "ĠGar": 5174,
      "ãĥŀãĥ«": 5175,
      "ĠAcade": 5176,
      "ĠØ§ÙĩÙĦ": 5177,
      "2000": 5178,
      "ãĥĲãĤ¹ãĤ±ãĥĥãĥĪãĥľãĥ¼ãĥ«": 5179,
      "ĠéĿĴ": 5180,
      "ases": 5181,
      "67": 5182,
      "ãĥĸãĥŃ": 5183,
      "zy": 5184,
      "Ġåħ¬": 5185,
      "iff": 5186,
      "æĸ½è¨Ń": 5187,
      "ĠCalifornia": 5188,
      "Ġ1981": 5189,
      "site": 5190,
      "ĠSov": 5191,
      "osl": 5192,
      "Ġzwei": 5193,
      "ĠãĤ±": 5194,
      "åıĬãģ³": 5195,
      "AP": 5196,
      "ç·ıåĲĪ": 5197,
      "ÙĪØ¦": 5198,
      "æºĲ": 5199,
      "Ã¹": 5200,
      "æ¾": 5201,
      "Ġèĩª": 5202,
      "ç§ĭ": 5203,
      "ãģ¾ãĤĬ": 5204,
      "ĠHall": 5205,
      "Ġrequ": 5206,
      "alk": 5207,
      "ĠIII": 5208,
      "ĠAk": 5209,
      "MD": 5210,
      "ãĤ¤ãĤ¯": 5211,
      "ĠÚ©Ø§Ø±": 5212,
      "Ġhistor": 5213,
      "Ġcareer": 5214,
      "Ġhistory": 5215,
      "å±ħ": 5216,
      "tend": 5217,
      "ãĥ³ãĥĲãĥ¼": 5218,
      "ĠTechn": 5219,
      "èµ¤": 5220,
      "ĠØ¨Ø±Ø§ÛĮ": 5221,
      "Ġ1978": 5222,
      "onde": 5223,
      "ĠThey": 5224,
      "ĠUnter": 5225,
      "WikipÃ©dia": 5226,
      "Ġdont": 5227,
      "ological": 5228,
      "ounc": 5229,
      "ÙĪØ´": 5230,
      "ä»¥ä¸ĭ": 5231,
      "ãĤ¿ãĥ«": 5232,
      "lad": 5233,
      "ivil": 5234,
      "ãĥĢãĥ¼": 5235,
      "ãĥįãĥĥãĥĪ": 5236,
      "Ġarea": 5237,
      "éĢ£åĲĪ": 5238,
      "æ±ł": 5239,
      "ãģķãĤĮãģ¦ãģĦãģŁ": 5240,
      "åĳ½äººçī©": 5241,
      "ĠBa": 5242,
      "Ġseveral": 5243,
      "ĠSom": 5244,
      "ĠTa": 5245,
      "inde": 5246,
      "åĽ²": 5247,
      "aki": 5248,
      "ÙħÛĮ": 5249,
      "ĠÃĸ": 5250,
      "Ġ1975": 5251,
      "Ġweb": 5252,
      "ĠØ³ÛĮ": 5253,
      "Ġchem": 5254,
      "frac": 5255,
      "AL": 5256,
      "EN": 5257,
      "ador": 5258,
      "ĠCompany": 5259,
      "æ½ľ": 5260,
      "ãģ®éĸ¢ä¿Ĥ": 5261,
      "lag": 5262,
      "vier": 5263,
      "bor": 5264,
      "ĠTit": 5265,
      "Ġservice": 5266,
      "ĠGal": 5267,
      "ided": 5268,
      "Ø§Ø²ÛĮÚ©": 5269,
      "ãģ¨åħ±": 5270,
      "å²©": 5271,
      "Ġpower": 5272,
      "Ġrad": 5273,
      "put": 5274,
      "Ġreport": 5275,
      "Ġtotal": 5276,
      "Ġown": 5277,
      "Ġwest": 5278,
      "Ġå£°": 5279,
      "Ġå®ī": 5280,
      "çĶ²": 5281,
      "Ġæ¦Ĥè¦ģ": 5282,
      "ĠHis": 5283,
      "Ã©ral": 5284,
      "ĠGen": 5285,
      "Ġpri": 5286,
      "ãĥĹãĥ©": 5287,
      "ĠBundes": 5288,
      "ĠLigue": 5289,
      "å¸ĿåĽ½": 5290,
      "Ġrepr": 5291,
      "Ġbre": 5292,
      "zen": 5293,
      "Ã©vrier": 5294,
      "ĠØ·": 5295,
      "Ãīt": 5296,
      "iness": 5297,
      "ĠãĥĶ": 5298,
      "ery": 5299,
      "ãĥ³ãĤ½": 5300,
      "è·¡": 5301,
      "03": 5302,
      "ĠÃ©galement": 5303,
      "Ġconf": 5304,
      "aving": 5305,
      "yan": 5306,
      "Ġpointant": 5307,
      "ãĤ·ãĤ¹ãĥĨãĥł": 5308,
      "ĠÃª": 5309,
      "ãĥ¯ãĥ¼ãĥ«ãĥī": 5310,
      "ĠQue": 5311,
      "ĠEngland": 5312,
      "ĠMuseum": 5313,
      "è¬Ľ": 5314,
      "right": 5315,
      "éĢ±": 5316,
      "77": 5317,
      "OM": 5318,
      "è¢": 5319,
      "iat": 5320,
      "ãĥĨãĥ«": 5321,
      "viron": 5322,
      "Ġbases": 5323,
      "ĠHal": 5324,
      "ĠMic": 5325,
      "ĠStadt": 5326,
      "ãĥ¼ãĥ©ãĥ³ãĥī": 5327,
      "Ġprincip": 5328,
      "ä»¥ä¸Ĭ": 5329,
      "gew": 5330,
      "vis": 5331,
      "ĠFrancis": 5332,
      "å°±": 5333,
      "ĠBook": 5334,
      "è¤": 5335,
      "å®¿": 5336,
      "å¸ĤèŃ¦å¯Ł": 5337,
      "ble": 5338,
      "å¹´ãģ®æĹ¥æľ¬": 5339,
      "ĠpremiÃ¨re": 5340,
      "æłªå¼ıä¼ļç¤¾": 5341,
      "ering": 5342,
      "ĠFIFA": 5343,
      "Ġ31": 5344,
      "çį²": 5345,
      "ĠØ´Ø¯": 5346,
      "ãĤĤãģĤãĤĭ": 5347,
      "ãĤ·ãĤ§": 5348,
      "ãģķãĤī": 5349,
      "ires": 5350,
      "Ġ1974": 5351,
      "Ġreturn": 5352,
      "HE": 5353,
      "ĠHowever": 5354,
      "æĹ¥ãģ®": 5355,
      "ogen": 5356,
      "ãĤ¯ãĥª": 5357,
      "ãĤ¦ãĤ©": 5358,
      "prÃ¨s": 5359,
      "ĠHan": 5360,
      "æı´": 5361,
      "ser": 5362,
      "Ġschool": 5363,
      "ĠChem": 5364,
      "ãģ®åĮ": 5365,
      "itÃ©s": 5366,
      "hou": 5367,
      "åħŃ": 5368,
      "ĠAz": 5369,
      "Ġsuccess": 5370,
      "ãĤ¹ãĤ¿ãĥ³": 5371,
      "è±Ĭ": 5372,
      "ĠPremier": 5373,
      "ç¦": 5374,
      "Ġexpl": 5375,
      "ĠMax": 5376,
      "éĥµ": 5377,
      "Ġearly": 5378,
      "ĠDoub": 5379,
      "Û¸": 5380,
      "éĥ·": 5381,
      "ĠãģĬ": 5382,
      "çĸ": 5383,
      "ĠmÃªme": 5384,
      "Ġrun": 5385,
      "Ġfer": 5386,
      "ĠãģĤ": 5387,
      "Ġlui": 5388,
      "ĠèĪ": 5389,
      "éĻº": 5390,
      "æķĻæİĪ": 5391,
      "Ġdam": 5392,
      "ily": 5393,
      "ĠVor": 5394,
      "ãģĻãĤĭãģ¨": 5395,
      "åº§æ¨Ļ": 5396,
      "ĠåıĤèĢĥæĸĩçĮ®": 5397,
      "Ġéĺ": 5398,
      "ç¯Ģ": 5399,
      "hel": 5400,
      "ĠWind": 5401,
      "ĠIslands": 5402,
      "action": 5403,
      "ĠBet": 5404,
      "ati": 5405,
      "Ġwin": 5406,
      "¾į": 5407,
      "Ġnombre": 5408,
      "è£ģ": 5409,
      "ä»¥éĻį": 5410,
      "£o": 5411,
      "ĠNic": 5412,
      "ĠØ§ÙĪ": 5413,
      "ĠRussia": 5414,
      "Ġ1973": 5415,
      "å³¶çľĮ": 5416,
      "2007": 5417,
      "âĺ": 5418,
      "It": 5419,
      "ero": 5420,
      "ĠDavis": 5421,
      "åĪĳ": 5422,
      "Û´": 5423,
      "å¾Įãģ®": 5424,
      "Ġsein": 5425,
      "ãĢįãĢĮ": 5426,
      "III": 5427,
      "Å«": 5428,
      "ä½ķ": 5429,
      "çŁŃ": 5430,
      "ãĤŃãĤ·": 5431,
      "Ġsqu": 5432,
      "oper": 5433,
      "ĠUm": 5434,
      "ommen": 5435,
      "Ġcrit": 5436,
      "umber": 5437,
      "å½ĵæĻĤ": 5438,
      "ĠUk": 5439,
      "ãĤ³ãĥ³ãĥĨ": 5440,
      "ãĥ¼ãĤ¼": 5441,
      "ĠMur": 5442,
      "Ã¶l": 5443,
      "ĠãĥĩãĤ£": 5444,
      "åĪ©çĶ¨": 5445,
      "raine": 5446,
      "æģµ": 5447,
      "oueur": 5448,
      "ç¿Ĵ": 5449,
      "Ġbased": 5450,
      "ĠÃªtre": 5451,
      "ØªÙĩ": 5452,
      "ucation": 5453,
      "ĠBad": 5454,
      "Ġsowie": 5455,
      "Ġval": 5456,
      "ĠãĤ¸ãĤ§": 5457,
      "nen": 5458,
      "ĠSim": 5459,
      "ently": 5460,
      "ĠSchw": 5461,
      "ãģŀ": 5462,
      "Re": 5463,
      "ĠBrazil": 5464,
      "ĠPlan": 5465,
      "ocrat": 5466,
      "anga": 5467,
      "ids": 5468,
      "Ġsmall": 5469,
      "oren": 5470,
      "Ġstatements": 5471,
      "å¹´ãģ«ãģ¯": 5472,
      "Ġgames": 5473,
      "ĠHy": 5474,
      "Ġfield": 5475,
      "ained": 5476,
      "glais": 5477,
      "ĠaprÃ¨s": 5478,
      "Ø§Ù¾": 5479,
      "ç®Ĺ": 5480,
      "ĠRom": 5481,
      "ĠBib": 5482,
      "Ġnoch": 5483,
      "Ġlife": 5484,
      "ĠãĥķãĤ¡": 5485,
      "ĠInternet": 5486,
      "ierre": 5487,
      "ãģªãģ©ãģ®": 5488,
      "nd": 5489,
      "sc": 5490,
      "ba": 5491,
      "ãĥĪãĥŃ": 5492,
      "ãģ®åł": 5493,
      "Ġå·Ŀ": 5494,
      "Ġlaw": 5495,
      "Ġdef": 5496,
      "ĠAfrica": 5497,
      "Ġbasketball": 5498,
      "éĻ¤": 5499,
      "ĠOper": 5500,
      "Ġmatches": 5501,
      "Ġæĸĩ": 5502,
      "Ġarm": 5503,
      "ãĥķãĥ©": 5504,
      "ãģªãģĬ": 5505,
      "ĠEsp": 5506,
      "ĠBob": 5507,
      "Mar": 5508,
      "GC": 5509,
      "èĹ": 5510,
      "æĮ¯": 5511,
      "ãģªãĤī": 5512,
      "ĠSociety": 5513,
      "born": 5514,
      "è«ĩ": 5515,
      "æĭħå½ĵ": 5516,
      "ÙħÙĩ": 5517,
      "bahn": 5518,
      "ĠArm": 5519,
      "ĠÃľ": 5520,
      "Ġgener": 5521,
      "ĠÙĨÛĮ": 5522,
      "Ã¨te": 5523,
      "vin": 5524,
      "uter": 5525,
      "glich": 5526,
      "ÙĨÙĪ": 5527,
      "Ġstr": 5528,
      "07": 5529,
      "adt": 5530,
      "ande": 5531,
      "nationalmannschaft": 5532,
      "Ø§ÙĨØ¯": 5533,
      "Û¶": 5534,
      "ĠGold": 5535,
      "ieurs": 5536,
      "Ã¶s": 5537,
      "2006": 5538,
      "itch": 5539,
      "ellen": 5540,
      "çµµ": 5541,
      "Ġprocess": 5542,
      "ĠAustralian": 5543,
      "ording": 5544,
      "Ġsite": 5545,
      "Ġbaseball": 5546,
      "Ġpersonn": 5547,
      "ĠFest": 5548,
      "Ġé¦": 5549,
      "ĠStandard": 5550,
      "ãĤ¦ãĥł": 5551,
      "ä»ı": 5552,
      "ĠaoÃ»t": 5553,
      "Ġkil": 5554,
      "ãĥŁãĥ¼": 5555,
      "Ġcentury": 5556,
      "ãĥŃãĤ·ãĤ¢": 5557,
      "ãĤ¦ãĥ«": 5558,
      "Ġå½¹": 5559,
      "ĠPhilipp": 5560,
      "02": 5561,
      "ographie": 5562,
      "ĠEmpire": 5563,
      "åºģ": 5564,
      "è¶ħ": 5565,
      "åľ°åĮº": 5566,
      "ãģ®ãģŁãĤģ": 5567,
      "ãĤĴè¦ĭ": 5568,
      "ĠAustralia": 5569,
      "onia": 5570,
      "ãĥĲãĥ¬ãĥ¼ãĥľãĥ¼ãĥ«": 5571,
      "publique": 5572,
      "unkt": 5573,
      "Ġ1971": 5574,
      "imal": 5575,
      "Ġ1950": 5576,
      "ĠPeople": 5577,
      "}\\": 5578,
      "ãģ®æĽ²": 5579,
      "ĠØ´Ø±": 5580,
      "ãĥĲãĥ¼": 5581,
      "ĠGes": 5582,
      "Ġåįĥ": 5583,
      "åı³": 5584,
      "ĠrÃ©fÃ©rences": 5585,
      "ĠBern": 5586,
      "Ġref": 5587,
      "ĠDar": 5588,
      "èª¿æŁ»": 5589,
      "onie": 5590,
      "Ġ1977": 5591,
      "serv": 5592,
      "ãĥĵãĥ«": 5593,
      "bers": 5594,
      "Ġconne": 5595,
      "Ġsitu": 5596,
      "aya": 5597,
      "Ġmehr": 5598,
      "ãĤĴåĭĻ": 5599,
      "ãĥĽãĥ¼ãĥ«": 5600,
      "heit": 5601,
      "ĠItaly": 5602,
      "Ġenc": 5603,
      "ãĤ¤ãĥ¤": 5604,
      "èª²": 5605,
      "ãĥ³ãĤ»": 5606,
      "isl": 5607,
      "ications": 5608,
      "Ġdid": 5609,
      "bed": 5610,
      "ĠæĶ": 5611,
      "åįĴæ¥Ń": 5612,
      "Ġ1928": 5613,
      "Ġstru": 5614,
      "eltmeistersch": 5615,
      "Ġsocial": 5616,
      "ĠOrgan": 5617,
      "yst": 5618,
      "rum": 5619,
      "uve": 5620,
      "62": 5621,
      "ãĤªãĥª": 5622,
      "è²ł": 5623,
      "utsche": 5624,
      "mph": 5625,
      "çŃĸ": 5626,
      "åħ¬éĸĭ": 5627,
      "ãĥ³ãĥį": 5628,
      "ĠArmy": 5629,
      "Ġhatte": 5630,
      "éģĵè·¯": 5631,
      "ategor": 5632,
      "utt": 5633,
      "ĠServ": 5634,
      "Ġbegan": 5635,
      "Ġelection": 5636,
      "Ġem": 5637,
      "Ġå¿": 5638,
      "ãģ®æķĻ": 5639,
      "Ñģ": 5640,
      "æľĪåł´æīĢ": 5641,
      "äººæ°ĳ": 5642,
      "ĠBand": 5643,
      "Ġåºĥ": 5644,
      "Ġçī¹": 5645,
      "osaur": 5646,
      "ãĥ¡ãĤ¸ãĥ£ãĥ¼": 5647,
      "za": 5648,
      "ÙħÛĮÙĦØ§Ø¯ÛĮ": 5649,
      "ãģłãģĮ": 5650,
      "anson": 5651,
      "éİ": 5652,
      "lÃ©": 5653,
      "ãĥ¼ãĥ´": 5654,
      "ÙĪÙĨÛĮ": 5655,
      "ili": 5656,
      "ãģĹãģı": 5657,
      "board": 5658,
      "èĩªåĪĨ": 5659,
      "ahr": 5660,
      "Ġ1969": 5661,
      "åĬ´": 5662,
      "bes": 5663,
      "çŁ¥çľĮ": 5664,
      "wood": 5665,
      "Sport": 5666,
      "ãĤĴæĮģãģ¤": 5667,
      "ĠBu": 5668,
      "Ġdeath": 5669,
      "çµĲæŀľ": 5670,
      "TC": 5671,
      "ãĥ©ãĤ¸ãĤª": 5672,
      "Ã¶nig": 5673,
      "èĩªåĭķè»Ĭ": 5674,
      "Ġannoun": 5675,
      "ĠãĥķãĤ£": 5676,
      "ho": 5677,
      "ĠBox": 5678,
      "astern": 5679,
      "Ġnamed": 5680,
      "å°Ħ": 5681,
      "ãĥ¼ãĤ½": 5682,
      "ĠCommons": 5683,
      "ĠÛ²Û°": 5684,
      "cycl": 5685,
      "éģĭåĭķ": 5686,
      "ĠGreen": 5687,
      "ymnast": 5688,
      "ç²¾": 5689,
      "ĠØ´Ø¯Ùĩ": 5690,
      "Ġhel": 5691,
      "aill": 5692,
      "onc": 5693,
      "Ġlim": 5694,
      "ï¼ģ": 5695,
      "å¤§ãģį": 5696,
      "ĠThere": 5697,
      "Ġcould": 5698,
      "53": 5699,
      "nam": 5700,
      "Ã¤ch": 5701,
      "Ġbuild": 5702,
      "Ġä¸»": 5703,
      "ĠÙħØ³": 5704,
      "Ġainsi": 5705,
      "Ġsingles": 5706,
      "Ġlarge": 5707,
      "å¹ķ": 5708,
      "ĠtÃ©lÃ©v": 5709,
      "63": 5710,
      "ĠLab": 5711,
      "åģľ": 5712,
      "å»ĥ": 5713,
      "ÙĪÙĨØ¯": 5714,
      "esh": 5715,
      "æ®µ": 5716,
      "Ġsingle": 5717,
      "ãģ®åĩº": 5718,
      "ãĥŁãĥ¥ãĥ¼ãĤ¸": 5719,
      "ĠçĶŁ": 5720,
      "ãģĹãģ¦ãģĬãĤĬ": 5721,
      "äººéĸĵ": 5722,
      "Ġå¤§éĺª": 5723,
      "Ġander": 5724,
      "Ġæ¡": 5725,
      "58": 5726,
      "ĠItalian": 5727,
      "ĠUse": 5728,
      "çķ¥": 5729,
      "ĠãĤ¦ãĤ£ãĤŃãĥĩãĥ¼ãĤ¿": 5730,
      "ãģ®åŁ": 5731,
      "ãģĹãģŁãģĮ": 5732,
      "åķıé¡Į": 5733,
      "è²©": 5734,
      "æĳ": 5735,
      "ãĥ¼ãĥ¨": 5736,
      "ouncil": 5737,
      "ĠWash": 5738,
      "ãģªãģĮãĤī": 5739,
      "ĠMass": 5740,
      "Ġhome": 5741,
      "Ġãĥĺ": 5742,
      "ĠWay": 5743,
      "ãĥ¼ãĥĵãĤ¹": 5744,
      "ĠoÃ¹": 5745,
      "èĩªèº«": 5746,
      "fect": 5747,
      "Ġbasket": 5748,
      "Ġcountry": 5749,
      "ĠDay": 5750,
      "ĠLin": 5751,
      "rd": 5752,
      "Ġdar": 5753,
      "pre": 5754,
      "Ġeines": 5755,
      "Ġæī": 5756,
      "ä¸ĬãģĴ": 5757,
      "ä¿³": 5758,
      "å¾Ĵ": 5759,
      "éĽ£": 5760,
      "ĠMach": 5761,
      "gypt": 5762,
      "Ġcr": 5763,
      "ĠåŁ": 5764,
      "Ġ1967": 5765,
      "ĠHu": 5766,
      "ules": 5767,
      "Ġartist": 5768,
      "ĠElect": 5769,
      "Ġé»": 5770,
      "ises": 5771,
      "ãĥĢãĥ«": 5772,
      "çĹĩ": 5773,
      "ĠSoviet": 5774,
      "ĠfÃ©vrier": 5775,
      "ĠLCC": 5776,
      "Ġå¼": 5777,
      "Ġmot": 5778,
      "äºľ": 5779,
      "tement": 5780,
      "ãģ¨åĳ¼ãģ°": 5781,
      "Ġround": 5782,
      "ãĤĴä½¿çĶ¨": 5783,
      "ĠLove": 5784,
      "æ¤į": 5785,
      "ively": 5786,
      "lauf": 5787,
      "ÙħÙĦ": 5788,
      "ĠHel": 5789,
      "ady": 5790,
      "ãĥ¡ãĥ¼ãĥĪãĥ«": 5791,
      "ĠForce": 5792,
      "ĠMi": 5793,
      "æķħ": 5794,
      "64": 5795,
      "Ġalong": 5796,
      "rary": 5797,
      "ĠAngeles": 5798,
      "08": 5799,
      "èŃ°éĻ¢": 5800,
      "ĠPolit": 5801,
      "Ġãĥİ": 5802,
      "allen": 5803,
      "Ġfol": 5804,
      "å¤īæĽ´": 5805,
      "ãģ¤ãģ®": 5806,
      "Ġfilms": 5807,
      "ĠLCCN": 5808,
      "Ġthird": 5809,
      "Ġcoll": 5810,
      "Ã¤nner": 5811,
      "ãĥ¼ãĥİ": 5812,
      "è£ķ": 5813,
      "Â»": 5814,
      "ĠcinÃ©ma": 5815,
      "raw": 5816,
      "çħ§": 5817,
      "ynast": 5818,
      "ãĥ³ãĤ³": 5819,
      "Ġ1932": 5820,
      "ä½İ": 5821,
      "ĠPost": 5822,
      "ĠDel": 5823,
      "ĠMount": 5824,
      "ãĥıãĤ¤": 5825,
      "Ġalors": 5826,
      "OV": 5827,
      "ĠAf": 5828,
      "imat": 5829,
      "ĠNorm": 5830,
      "Ġ1924": 5831,
      "ĠÃĹ": 5832,
      "rick": 5833,
      "ĠMas": 5834,
      "irk": 5835,
      "å¸ĥ": 5836,
      "æ¨¡": 5837,
      "ĠMetro": 5838,
      "Ġæĺİ": 5839,
      "iker": 5840,
      "æıĽ": 5841,
      "hic": 5842,
      "Ġstub": 5843,
      "ness": 5844,
      "é«ĺæł¡": 5845,
      "çį²å¾Ĺ": 5846,
      "ouvelle": 5847,
      "ĠTennis": 5848,
      "Ġrelig": 5849,
      "lung": 5850,
      "Ø§Ø±Ùĩ": 5851,
      "erreich": 5852,
      "ãĥ¶": 5853,
      "isches": 5854,
      "»º": 5855,
      "éĻ¸ä¸Ĭ": 5856,
      "åĪ¶ä½ľ": 5857,
      "ĠJoseph": 5858,
      "Ãº": 5859,
      "Ġprob": 5860,
      "eck": 5861,
      "ĠRen": 5862,
      "abe": 5863,
      "Ġcompany": 5864,
      "Ġif": 5865,
      "Ġmat": 5866,
      "ittee": 5867,
      "69": 5868,
      "ĠBy": 5869,
      "æĻº": 5870,
      "Ġterrit": 5871,
      "stant": 5872,
      "tres": 5873,
      "obre": 5874,
      "Û³": 5875,
      "ç®¡çĲĨ": 5876,
      "Ġ183": 5877,
      "Ġãĥĭãĥ¥": 5878,
      "ĠLaw": 5879,
      "éĥµä¾¿": 5880,
      "Ġindivid": 5881,
      "æ±Ĥ": 5882,
      "ictor": 5883,
      "ĠLife": 5884,
      "aced": 5885,
      "ãĥ¼ãĥŃãĥĥãĥĳ": 5886,
      "rieg": 5887,
      "ĠJo": 5888,
      "ĠamÃ©ricain": 5889,
      "gu": 5890,
      "ination": 5891,
      "Ġwater": 5892,
      "Ġproduction": 5893,
      "å¼ĺ": 5894,
      "ĠEnt": 5895,
      "ĠApp": 5896,
      "Ġzwischen": 5897,
      "Ġrelatives": 5898,
      "ĠMil": 5899,
      "Ġperson": 5900,
      "Ġautom": 5901,
      "Ġwaren": 5902,
      "09": 5903,
      "ãĥ¼ãĥ«ãĤº": 5904,
      "ror": 5905,
      "Ġorder": 5906,
      "ãĥ¼ãĥĩãĤ£": 5907,
      "éłĥ": 5908,
      "Pro": 5909,
      "æĬĢè¡ĵ": 5910,
      "ĠSpanish": 5911,
      "ĠVolleyball": 5912,
      "ĠannÃ©es": 5913,
      "éļĨ": 5914,
      "ãģĸ": 5915,
      "å·®": 5916,
      "Ġsports": 5917,
      "ances": 5918,
      "ĠVan": 5919,
      "ining": 5920,
      "itude": 5921,
      "ĠÙħÙĪ": 5922,
      "flu": 5923,
      "ĠSun": 5924,
      "Ã©tro": 5925,
      "amine": 5926,
      "æĬľ": 5927,
      "2023": 5928,
      "ĠWhite": 5929,
      "ĠåŃĺ": 5930,
      "çī¹åĪ¥": 5931,
      "Ġever": 5932,
      "ĠInt": 5933,
      "ĠØ¢ÙħØ±ÛĮÚ©Ø§": 5934,
      "ãĥķãĥªãĤ«": 5935,
      "Ġperiod": 5936,
      "vert": 5937,
      "Ġdepuis": 5938,
      "usiness": 5939,
      "ĠStadium": 5940,
      ",.": 5941,
      "æ²¡": 5942,
      "ĠArgent": 5943,
      "lim": 5944,
      "Ġå²¡": 5945,
      "Ġlang": 5946,
      "ãģ®åĽ½": 5947,
      "ĠÙħØŃ": 5948,
      "day": 5949,
      "ãģ®å¯": 5950,
      "auche": 5951,
      "å¼ķãģį": 5952,
      "Ġappear": 5953,
      "ãĥĪãĤ¥": 5954,
      "æ³ķäºº": 5955,
      "Ġheld": 5956,
      "çªģ": 5957,
      "ĳç´Ħ": 5958,
      "Ġå¥": 5959,
      "ãĥ©ãĤ¤ãĥĸ": 5960,
      "FuÃŁball": 5961,
      "54": 5962,
      "Ġversion": 5963,
      "ĠCy": 5964,
      "Ġshow": 5965,
      "é³¥": 5966,
      "ãģĵãĤį": 5967,
      "ĠÚ©Ø±Ø¯": 5968,
      "Ġeing": 5969,
      "Ø§ÙĨÙĩ": 5970,
      "ãģĵãģ¨ãģ§": 5971,
      "Ġdro": 5972,
      "ãģ«å¯¾ãģĹãģ¦": 5973,
      "CI": 5974,
      "era": 5975,
      "istoire": 5976,
      "Ġcycl": 5977,
      "gesch": 5978,
      "ĠRailway": 5979,
      "ãĥĵãĥ¥ãĥ¼": 5980,
      "51": 5981,
      "ogle": 5982,
      "ÙĨØ§Ùħ": 5983,
      "ĠÚ¯Ø±": 5984,
      "åĨĻ": 5985,
      "ãĥĥãĤ°": 5986,
      "Ġanglais": 5987,
      "ohn": 5988,
      "teil": 5989,
      "ĠConc": 5990,
      "ãĥªãĥ¼ãĤ°ãĥĻãĥ¼ãĤ¹ãĥľãĥ¼ãĥ«": 5991,
      "ĠWashington": 5992,
      "ĠÙ¾Ø±": 5993,
      "ĠØ¨ÙĪØ¯": 5994,
      "ĠåĽ½éļĽ": 5995,
      "Ġãĥļ": 5996,
      "ãĤ¬ãĥ«": 5997,
      "Ġway": 5998,
      "ĠØ¬Ùĩ": 5999,
      "thers": 6000,
      "æ¸©": 6001,
      "ĠåŃĺåĳ½äººçī©": 6002,
      "ĠãĤ®": 6003,
      "Ġfact": 6004,
      "ãģĨãģ¡": 6005,
      "Ġèĭ±": 6006,
      "æİ¨": 6007,
      "ĠGol": 6008,
      "å·¥æ¥Ń": 6009,
      "tÃ©": 6010,
      "ãĤ¸ãĤ§ãĤ¯ãĥĪ": 6011,
      "ãģ®åĲį": 6012,
      "æĻĤãģ«": 6013,
      "ĠPers": 6014,
      "ĠSpace": 6015,
      "nement": 6016,
      "En": 6017,
      "Ġseiner": 6018,
      "Ġpeut": 6019,
      "isc": 6020,
      "Ġincre": 6021,
      "Ġactiv": 6022,
      "ĠSar": 6023,
      "face": 6024,
      "ĠTs": 6025,
      "ãĥīãĥ«": 6026,
      "52": 6027,
      "Ġãĥ¤": 6028,
      "athlon": 6029,
      "ãĥ£ãĥ¼": 6030,
      "å¾ĵ": 6031,
      "Ø±Ø¨ÛĮ": 6032,
      "éłĨ": 6033,
      "æĸĩåŃ¦": 6034,
      "ĠAnton": 6035,
      "ritann": 6036,
      "ĠZh": 6037,
      "ç¬ĳ": 6038,
      "ĠMod": 6039,
      "cke": 6040,
      "ĠProvince": 6041,
      "ĠnÃ©": 6042,
      "ãģ®åĬ": 6043,
      "Ġmembers": 6044,
      "Ġçķ": 6045,
      "è¡ĮãĤıãĤĮãģŁ": 6046,
      "2005": 6047,
      "ãĤ¤ãĥĸ": 6048,
      "bach": 6049,
      "Ġbecause": 6050,
      "ĠVirgin": 6051,
      "mus": 6052,
      "uded": 6053,
      "äºĭåĭĻ": 6054,
      "Ġski": 6055,
      "è¨Ńç½®": 6056,
      "unst": 6057,
      "ĠAcademy": 6058,
      "venue": 6059,
      "ÃŁer": 6060,
      "ÛĮÙĨÛĮ": 6061,
      "ĠçµĮ": 6062,
      "éĽ»è»Ĭ": 6063,
      "ãģĪãģ¦": 6064,
      "ulf": 6065,
      "éĢ£çĽŁ": 6066,
      "ĠDi": 6067,
      "DA": 6068,
      "MS": 6069,
      "ãĥ¼ãĤ¯ãĤ¹": 6070,
      "Ġchild": 6071,
      "ãĥŃãĤ¹": 6072,
      "ĠImp": 6073,
      "Ġrepresent": 6074,
      "ĠKal": 6075,
      "Ġjuillet": 6076,
      "ĠMai": 6077,
      "Ġ1966": 6078,
      "åĩ¦": 6079,
      "59": 6080,
      "Ġ1920": 6081,
      "ãĤ¹ãĥ¼ãĥĳ": 6082,
      "ĠãĥĴ": 6083,
      "ĠKur": 6084,
      "ĠØ¯ÙĪ": 6085,
      "ental": 6086,
      "åĬĩåł´": 6087,
      "ĠØ§ÛĮØ§ÙĦ": 6088,
      "ĠØ³Ø±": 6089,
      "ĠFern": 6090,
      "Ġaround": 6091,
      "ĠMel": 6092,
      "Ġgrand": 6093,
      "ĠScott": 6094,
      "Ġjed": 6095,
      "met": 6096,
      "Ġanc": 6097,
      "ãģ®åº": 6098,
      "ãĤªãĥ¼ãĥĹ": 6099,
      "Ø§ÙĤ": 6100,
      "emp": 6101,
      "æ¡Ī": 6102,
      "Ġmort": 6103,
      "èĩ£": 6104,
      "ãĥ¼ãĥ¨ãĥ¼ãĤ¯": 6105,
      "ĠGeb": 6106,
      "61": 6107,
      "ĠLiter": 6108,
      "ĠæĿ±äº¬éĥ½": 6109,
      "vo": 6110,
      "ãĤ·ãĥ¼": 6111,
      "ãĥ¼ãĤ¶": 6112,
      "ĠTeil": 6113,
      "Ġeast": 6114,
      "kreis": 6115,
      "å¸Į": 6116,
      "isk": 6117,
      "å²¸": 6118,
      "Ø§Ø±Ú©": 6119,
      "å¨": 6120,
      "æĶ¿åºľ": 6121,
      "footballer": 6122,
      "Ã£o": 6123,
      "ĠOx": 6124,
      "itive": 6125,
      "ãĥªãĥ¼ãĤ¹": 6126,
      "ãĤŃãĥ¥": 6127,
      "ãĤ°ãĥ©ãĥ³ãĥĹãĥª": 6128,
      "Ġspace": 6129,
      "ÙĨØ¯Ùĩ": 6130,
      "Ġchang": 6131,
      "ĠDa": 6132,
      "though": 6133,
      "ãģ¨ãģªãģ£ãģ¦ãģĦãĤĭ": 6134,
      "Ġå¤§çĽ¸æĴ²": 6135,
      "Ġdoubles": 6136,
      "embre": 6137,
      "ĠDre": 6138,
      "usion": 6139,
      "èīĩ": 6140,
      "ĠKorean": 6141,
      "ditions": 6142,
      "ĠRock": 6143,
      "ĠStra": 6144,
      "åĲĮå¹´": 6145,
      "atural": 6146,
      "Ġconsider": 6147,
      "æ±ºå®ļ": 6148,
      "åĬ¹": 6149,
      "Ġåĭ": 6150,
      "ç£": 6151,
      "è¤ĩ": 6152,
      "ĠTre": 6153,
      "Ġaff": 6154,
      "agement": 6155,
      "Ø§ØŃ": 6156,
      "ç«¯": 6157,
      "Ġlib": 6158,
      "Ġsimil": 6159,
      "ĠÚ©Ø±": 6160,
      "ĠSpr": 6161,
      "ãĥĥãĤ»": 6162,
      "åī²": 6163,
      "Ġri": 6164,
      "äººãģĮ": 6165,
      "ĠTai": 6166,
      "ĠHot": 6167,
      "ä½µ": 6168,
      "æľĢçµĤ": 6169,
      "Ġ(*": 6170,
      "æķ´": 6171,
      "ä½ľè©ŀ": 6172,
      "Ġbir": 6173,
      "fic": 6174,
      "ãĥ«ãĤ®": 6175,
      "ãĥģãĥ¥": 6176,
      "wards": 6177,
      "Ġæľ¨": 6178,
      "rieb": 6179,
      "ĠDaniel": 6180,
      "Ġmars": 6181,
      "Ġunivers": 6182,
      "ÙģØ±": 6183,
      "Ã¤s": 6184,
      "Ð¾Ð": 6185,
      "ãĥĳãĥ³": 6186,
      "Ġchampions": 6187,
      "ĠÚ©Ø´": 6188,
      "ĠKim": 6189,
      "ĠçĻ½": 6190,
      "imming": 6191,
      "ĠÙĨØ§Ùħ": 6192,
      "ãĥ¼ãĥŁ": 6193,
      "æľĢé«ĺ": 6194,
      "Ġrap": 6195,
      "Ġå²©": 6196,
      "Û·": 6197,
      "ĠéĻ": 6198,
      "ĠLong": 6199,
      "ĠId": 6200,
      "Ġè¶": 6201,
      "å·ĿçľĮ": 6202,
      "ç©ºæ¸¯": 6203,
      "lines": 6204,
      "ĠCross": 6205,
      "éĢļãĤĬ": 6206,
      "ĠDo": 6207,
      "å©ļ": 6208,
      "ĠBank": 6209,
      "ãģ®æĶ¿æ²»": 6210,
      "Ġbook": 6211,
      "hib": 6212,
      "ãĤ±ãĥĥãĥĪ": 6213,
      "å¼¾": 6214,
      "Ġtyp": 6215,
      "Ø¸": 6216,
      "ä½įç½®": 6217,
      "ĠPac": 6218,
      "ucle": 6219,
      "ãģ¨ãĤĤãģ«": 6220,
      "ĠFort": 6221,
      "Ġéĸ¢": 6222,
      "ĠWestern": 6223,
      "book": 6224,
      "rel": 6225,
      "bas": 6226,
      "ĠLiens": 6227,
      "Ġoften": 6228,
      "cast": 6229,
      "ĠLeg": 6230,
      "ĠLie": 6231,
      "Ġ1965": 6232,
      "OL": 6233,
      "sterreich": 6234,
      "ĠTemp": 6235,
      "Ġoct": 6236,
      "æĨ²": 6237,
      "ĠåĨħ": 6238,
      "side": 6239,
      "ĠJer": 6240,
      "Ġfive": 6241,
      "ÃĹ": 6242,
      "ĠPortugal": 6243,
      "iÃ©": 6244,
      "ç¾½": 6245,
      "itor": 6246,
      "æĺĮ": 6247,
      "unde": 6248,
      "ĠBNF": 6249,
      "ĠãĢľ": 6250,
      "Ġren": 6251,
      "Ġculture": 6252,
      "Ġdates": 6253,
      "akh": 6254,
      "ĠãĤ²": 6255,
      "atique": 6256,
      "Ġè¿": 6257,
      "ĠÙħØªØŃ": 6258,
      "Ġjo": 6259,
      "ered": 6260,
      "çī©èªŀ": 6261,
      "ä¸Ńå¿ĥ": 6262,
      "ãĤ¤ãĥīãĥ«": 6263,
      "ieren": 6264,
      "âĢ¦": 6265,
      "Ġconstit": 6266,
      "ÛĮÙĩ": 6267,
      "ĠStation": 6268,
      "æĪĲç¸¾": 6269,
      "Ġsaid": 6270,
      "hund": 6271,
      "ãĤ½ãĥķãĥĪ": 6272,
      "osp": 6273,
      "ĠÃ©tait": 6274,
      "nah": 6275,
      "ĠéīĦ": 6276,
      "ethyl": 6277,
      "Amer": 6278,
      "Ġersten": 6279,
      "Ġnou": 6280,
      "hemat": 6281,
      "ãĤıãģĽ": 6282,
      "äº¡": 6283,
      "ĠSon": 6284,
      "çĽ®ãģ®": 6285,
      "Ġæ¥": 6286,
      "ãĤ¦ãĥ³": 6287,
      "ĠØ´Ùħ": 6288,
      "Ã¯": 6289,
      "otan": 6290,
      "Ġlast": 6291,
      "Ġannounced": 6292,
      "Ġdown": 6293,
      "ãģĭãĤīãģ®": 6294,
      "ittel": 6295,
      "ãģ¡ãĤĥãĤĵ": 6296,
      "Ġåĳ": 6297,
      "ĠKarl": 6298,
      "æĬĹ": 6299,
      "ãĤ¤ãĤ¿ãĥªãĤ¢": 6300,
      "icago": 6301,
      "ĠØ¨Ø§Ø´Ú¯Ø§Ùĩ": 6302,
      "rice": 6303,
      "Ital": 6304,
      "Bas": 6305,
      "ĠSen": 6306,
      "anvier": 6307,
      "ĠãĤ¶": 6308,
      "ĠXV": 6309,
      "Ġãĥį": 6310,
      "igt": 6311,
      "ĠHenry": 6312,
      "å¥ı": 6313,
      "Ġphys": 6314,
      "ĠFried": 6315,
      "ĠIndian": 6316,
      "partment": 6317,
      "Ġtype": 6318,
      "Ġpuis": 6319,
      "Ġåı¤": 6320,
      "Ġä¸ĸçķĮ": 6321,
      "åĬŁ": 6322,
      "ãĤ·ãĥ³ãĤ°ãĥ«": 6323,
      "Ġprim": 6324,
      "Ġ1963": 6325,
      "iano": 6326,
      "éļľ": 6327,
      "ĠIsra": 6328,
      "åĪĿãģ®": 6329,
      "inning": 6330,
      "ãģ®æ°": 6331,
      "ionen": 6332,
      "Ġcontrol": 6333,
      "è¡ĮæĶ¿": 6334,
      "Ġtook": 6335,
      "amt": 6336,
      "çłĶç©¶æīĢ": 6337,
      "ĠBuddh": 6338,
      "ourced": 6339,
      "can": 6340,
      "eille": 6341,
      "å·¦": 6342,
      "lo": 6343,
      "Ġæ±Ł": 6344,
      "Ġmetres": 6345,
      "Ġday": 6346,
      "æ·±": 6347,
      "ĠHans": 6348,
      "æıı": 6349,
      "Ġãģ®": 6350,
      "èĢħãģ®": 6351,
      "Ġengine": 6352,
      "æĿ¿": 6353,
      "çĽ¤": 6354,
      "acc": 6355,
      "Ġjust": 6356,
      "ised": 6357,
      "ä¹Ŀå·ŀ": 6358,
      "Û±": 6359,
      "ãĤ³ãĥŃ": 6360,
      "ado": 6361,
      "Ġjanvier": 6362,
      "ãĤĮãģ¦": 6363,
      "Ġjuin": 6364,
      "ãĤªãĥĸ": 6365,
      "Ġãĥ¨": 6366,
      "Ġbo": 6367,
      "ç¾İè¡ĵ": 6368,
      "RE": 6369,
      "igital": 6370,
      "è¼¸": 6371,
      "èĭ¥": 6372,
      "IT": 6373,
      "Ġplayer": 6374,
      "Ġinit": 6375,
      "ĠKÃ¶nig": 6376,
      "ãģ»ãģĭ": 6377,
      "å¯Ĩ": 6378,
      "ĠTo": 6379,
      "Ø¨Ø§Ø²ÛĮÚ©": 6380,
      "å®ħ": 6381,
      "uh": 6382,
      "Ġæµ·": 6383,
      "ĠRecords": 6384,
      "è²©å£²": 6385,
      "Ġmai": 6386,
      "Ġlink": 6387,
      "ittle": 6388,
      "ãĥ¬ãĥ¼": 6389,
      "ãĤıãĤĬ": 6390,
      "Ġappel": 6391,
      "ying": 6392,
      "rach": 6393,
      "ergy": 6394,
      "ä¹±": 6395,
      "Ġcit": 6396,
      "ĠSpain": 6397,
      "åŃ¦åľĴ": 6398,
      "Ġseit": 6399,
      "Ġtable": 6400,
      "Ã©tisme": 6401,
      "ĠSel": 6402,
      "leich": 6403,
      "ãģ¨ãģį": 6404,
      "Ġtitle": 6405,
      "Ġcat": 6406,
      "ĠJahre": 6407,
      "æĵį": 6408,
      "Ġel": 6409,
      ".)": 6410,
      "ĠÄ": 6411,
      "æ¼«çĶ»": 6412,
      "Ġdest": 6413,
      "Ġsou": 6414,
      "Ġcommon": 6415,
      "beit": 6416,
      "Ġtest": 6417,
      "ĠFrauen": 6418,
      "ĠÂ».": 6419,
      "ĠOlympischen": 6420,
      "uj": 6421,
      "ĠCouncil": 6422,
      "ãģ«ç§»": 6423,
      "æ¯İ": 6424,
      "Ġmass": 6425,
      "ĠKaz": 6426,
      "Ø«": 6427,
      "Ġgeneral": 6428,
      "ĠInstitute": 6429,
      "Ġleg": 6430,
      "ĠJust": 6431,
      "æ°ĳä¸»": 6432,
      "oft": 6433,
      "çĨ±": 6434,
      "Ġunsourced": 6435,
      "é¾į": 6436,
      "igte": 6437,
      "ãĤµãĥ¼ãĥĵãĤ¹": 6438,
      "ä»®": 6439,
      "ielle": 6440,
      "Ġcategor": 6441,
      "ãĥ¡ãĤ¸ãĥ£ãĥ¼ãĥªãĥ¼ãĤ°ãĥĻãĥ¼ãĤ¹ãĥľãĥ¼ãĥ«": 6442,
      "OK": 6443,
      "ĠStaaten": 6444,
      "ç«ľ": 6445,
      "ãĥŃãĥ³": 6446,
      "¼çİī": 6447,
      "erk": 6448,
      "2004": 6449,
      "ĠâĨĴ": 6450,
      "Ġdistrict": 6451,
      "Ġæ£®": 6452,
      "ĠLee": 6453,
      "Ġwithout": 6454,
      "ãĤĴå¿ħè¦ģ": 6455,
      "irm": 6456,
      "ĠEinzeln": 6457,
      "issement": 6458,
      "ãĤ¤ãĥ³ãĥī": 6459,
      "Ġdom": 6460,
      "Ġwieder": 6461,
      "ãģķãĤīãģ«": 6462,
      "uth": 6463,
      "Ġæ©": 6464,
      "Ġsaison": 6465,
      "éº»": 6466,
      "ĠNGC": 6467,
      "åŃ£": 6468,
      "æ¾¤": 6469,
      "Ġgro": 6470,
      "ãĤ·ãĥ³": 6471,
      "æĹ¥ãģĭãĤī": 6472,
      "ixed": 6473,
      "As": 6474,
      "arian": 6475,
      "ĠIran": 6476,
      "dy": 6477,
      "ĠKos": 6478,
      "ãĥ¦ãĥĭ": 6479,
      "Ġjedoch": 6480,
      "akt": 6481,
      "uay": 6482,
      "hof": 6483,
      "ĠGame": 6484,
      "ãģĮãģĤãĤĬ": 6485,
      "ãĤ§ãĥ«": 6486,
      "vention": 6487,
      "MDb": 6488,
      "ĠRam": 6489,
      "achweise": 6490,
      "riff": 6491,
      "ĠHill": 6492,
      "bon": 6493,
      "é¤Ĭ": 6494,
      "ĠãĤ´": 6495,
      "éĬĢè¡Į": 6496,
      "ovision": 6497,
      "stand": 6498,
      "Ġleft": 6499,
      "ĠSocial": 6500,
      "ãģĭãģĳ": 6501,
      "ãģ®åł´": 6502,
      "Ġled": 6503,
      "ãĥ¬ãĥ¼ãĤ¹": 6504,
      "ä¸ĢèĪ¬": 6505,
      "ST": 6506,
      "ãĥŃãĥ¼": 6507,
      "éģĬ": 6508,
      "ĠJohann": 6509,
      "ii": 6510,
      "Ġstar": 6511,
      "ĠPap": 6512,
      "Ø®Øª": 6513,
      "Ġèª": 6514,
      "ãĤĴåĲ«": 6515,
      "ĠCur": 6516,
      "èįī": 6517,
      "ĠMah": 6518,
      "aud": 6519,
      "âĺĨ": 6520,
      "Ġihre": 6521,
      "æĤª": 6522,
      "cembre": 6523,
      "ential": 6524,
      "ĠEinzelnachweise": 6525,
      "ãĥ©ãĥ«": 6526,
      "Ġpot": 6527,
      "chan": 6528,
      "è¦ļ": 6529,
      "unden": 6530,
      "Ġ1962": 6531,
      "ãĥ¼ãĤ²": 6532,
      "iko": 6533,
      "ãģ®å¼": 6534,
      "Ġkonn": 6535,
      "Ġpresident": 6536,
      "åħ¬æ¼Ķ": 6537,
      "ĠAls": 6538,
      "Ġdieser": 6539,
      "ãĥ¼ãĥĻ": 6540,
      "Ġmid": 6541,
      "Ġä¸ŃåĽ½": 6542,
      "ĠBol": 6543,
      "ĠÙħØ±": 6544,
      "Ġprogram": 6545,
      "Ġligne": 6546,
      "usamm": 6547,
      "ĠÙ¾ÛĮ": 6548,
      "ãģ¨åħ±ãģ«": 6549,
      "ĠAtlant": 6550,
      "ãĤ·ãĥĨãĤ£": 6551,
      "band": 6552,
      "ĠCamb": 6553,
      "ãģ®æĮ": 6554,
      "ĠDans": 6555,
      "ä¼ļèŃ°": 6556,
      "Ġkann": 6557,
      "Ġmiss": 6558,
      "Ġ1945": 6559,
      "Ġfois": 6560,
      "ĠAng": 6561,
      "Ġcirc": 6562,
      "éĽĳ": 6563,
      "Ġkg": 6564,
      "pan": 6565,
      "ä¼´": 6566,
      "Ġsort": 6567,
      "Ĵ²": 6568,
      "uki": 6569,
      "ĠAfrican": 6570,
      "ĠÛĮØ§": 6571,
      "ĠØ®ÙĪØ¯": 6572,
      "Ġevents": 6573,
      "ĠFinal": 6574,
      "ĠEnd": 6575,
      "ãĤĴåıĹãģĳ": 6576,
      "ĠDeutschland": 6577,
      "erman": 6578,
      "yc": 6579,
      "ãģªãĤĬ": 6580,
      "erland": 6581,
      "jan": 6582,
      "inder": 6583,
      "imate": 6584,
      "ĠãĤŃãĥ£": 6585,
      "ĠChicago": 6586,
      "Weltmeistersch": 6587,
      "ãĥĽãĥ¼ãĥł": 6588,
      "ĠDr": 6589,
      "ali": 6590,
      "Ġcell": 6591,
      "ptembre": 6592,
      "è¾ŀ": 6593,
      "ĠTex": 6594,
      "Ġinclude": 6595,
      "Ġdescri": 6596,
      "ĠæŃ¦": 6597,
      "ãĥĨãĥ³": 6598,
      "ĠMary": 6599,
      "Ġsw": 6600,
      "Ġ$": 6601,
      "å¹´ãģ®ãĥ¡ãĤ¸ãĥ£ãĥ¼ãĥªãĥ¼ãĤ°ãĥĻãĥ¼ãĤ¹ãĥľãĥ¼ãĥ«": 6602,
      "azon": 6603,
      "ä¿Ĭ": 6604,
      "Ġèĳ": 6605,
      "Ø²Ø´": 6606,
      "å²¡çľĮ": 6607,
      "ä¿³åĦª": 6608,
      "æİ¢": 6609,
      "ä½ĵèĤ²": 6610,
      "æľį": 6611,
      "ĠTimes": 6612,
      "Ù¾Ø¯": 6613,
      "æľŃ": 6614,
      "ĠÙĦÛĮ": 6615,
      "ori": 6616,
      "ĠEurovision": 6617,
      "ãģ»ãģ©": 6618,
      "Ġåľ": 6619,
      "icial": 6620,
      "Ã©qu": 6621,
      "orph": 6622,
      "Ġop": 6623,
      "hÃ¶": 6624,
      "å¸Ń": 6625,
      "rang": 6626,
      "ample": 6627,
      "ĠMilit": 6628,
      "ismus": 6629,
      "ãĥªãĥ¥": 6630,
      "bur": 6631,
      "rache": 6632,
      "dle": 6633,
      "ogn": 6634,
      "Ġposition": 6635,
      "ãĥĥãĤ±": 6636,
      "Ġwithin": 6637,
      "ãĥ³ãĥľ": 6638,
      "éĿĻ": 6639,
      "Ġå¸Ĥ": 6640,
      "å®ĩå®Ļ": 6641,
      "BF": 6642,
      "åīĩ": 6643,
      "ä»ĸãģ®": 6644,
      "Tube": 6645,
      "ãģ®å·": 6646,
      "ãĤĴå¿ħè¦ģãģ¨ãģĻãĤĭ": 6647,
      "å¾´": 6648,
      "alymp": 6649,
      "Ġdrei": 6650,
      "ä¼ĳ": 6651,
      "aines": 6652,
      "Ġseptembre": 6653,
      "ĠSqu": 6654,
      "ãĢĪ": 6655,
      "Ġhead": 6656,
      "fen": 6657,
      "ãģķãģĽãĤĭ": 6658,
      "Ġappl": 6659,
      "ãĢī": 6660,
      "å¥³æĢ§": 6661,
      "Ġalle": 6662,
      "Ġcontinu": 6663,
      "ãĥĬãĥĢ": 6664,
      "Ġadminist": 6665,
      "âĢĶ": 6666,
      "éģķ": 6667,
      "çµĤäºĨ": 6668,
      "ĠSyn": 6669,
      "ãĥ¡ãĥ³ãĥĲãĥ¼": 6670,
      "ched": 6671,
      "é§Ĩ": 6672,
      "ronze": 6673,
      "Ġnear": 6674,
      "uba": 6675,
      "èĢĥãģĪ": 6676,
      "ãĤªãĥ¼ãĤ¹ãĥĪ": 6677,
      "ĠMunicip": 6678,
      "ĠSchl": 6679,
      "ĠSmith": 6680,
      "ĠIMDb": 6681,
      "aign": 6682,
      "Ġå¯Į": 6683,
      "ĠAT": 6684,
      "ãĥĥãĤ¸": 6685,
      "etzt": 6686,
      "Ġãĥķãĥ©ãĥ³ãĤ¹": 6687,
      "ĠJahrhund": 6688,
      "Ðº": 6689,
      "500": 6690,
      "ĠJapon": 6691,
      "vious": 6692,
      "Ġfac": 6693,
      "haus": 6694,
      "ieg": 6695,
      "Ġsem": 6696,
      "Ġá": 6697,
      "Ġvie": 6698,
      "èĮ¶": 6699,
      "restling": 6700,
      "ĠCommittee": 6701,
      "ĠAlexander": 6702,
      "ĠSpec": 6703,
      "ĠØ´ÙĩØ±": 6704,
      "Ã¨tres": 6705,
      "ishing": 6706,
      "æĹ¥çĻºå£²": 6707,
      "ĠKan": 6708,
      "Ġhal": 6709,
      "ories": 6710,
      "Ġcharacter": 6711,
      "illes": 6712,
      "ãĤ¢ãĥ¼": 6713,
      "MA": 6714,
      "_%": 6715,
      "Ã¤ter": 6716,
      "ĠMiss": 6717,
      "Ġ000": 6718,
      "å¡ģ": 6719,
      "Ph": 6720,
      "68": 6721,
      "è¨±": 6722,
      "ila": 6723,
      "ĠÙħØªØŃØ¯Ùĩ": 6724,
      "aker": 6725,
      "Ġåħ«": 6726,
      "Ù¾Ø¯ÛĮØ§": 6727,
      "Ġåīį": 6728,
      "ãĥ³ãĥįãĥ«": 6729,
      "Ġdonn": 6730,
      "ãĤ¢ãĥĬ": 6731,
      "Ġpartie": 6732,
      "ĠâĢľ": 6733,
      "Ī´æľ¨": 6734,
      "Ġfur": 6735,
      "isen": 6736,
      "ãģĭãģ¤ãģ¦": 6737,
      "ĠÃĢ": 6738,
      "ĠNews": 6739,
      "ĠãĥīãĤ¤ãĥĦ": 6740,
      "Ġerst": 6741,
      "Ġtournament": 6742,
      "ĠSU": 6743,
      "ãģ®åĭ": 6744,
      "ronom": 6745,
      "ĠâĢĶ": 6746,
      "ĠSlov": 6747,
      "ami": 6748,
      "ĠMaur": 6749,
      "BE": 6750,
      "ãģ®ä¸Ģè¦§": 6751,
      "Ġville": 6752,
      "ĠSerb": 6753,
      "gang": 6754,
      "Ġjus": 6755,
      "Ġexist": 6756,
      "çĤº": 6757,
      "Ġprot": 6758,
      "Ġces": 6759,
      "åľ°ä¸ĭ": 6760,
      "ãĤ¹ãĤ±ãĥ¼ãĥĪ": 6761,
      "Ġbek": 6762,
      "ãĥ¬ãĥ¼ãĤ·ãĥ§ãĥ³": 6763,
      "Ġallem": 6764,
      "Ġ1961": 6765,
      "ãĤºãĥł": 6766,
      "osh": 6767,
      "Ġmoins": 6768,
      "Ġ|": 6769,
      "ĠBes": 6770,
      "è¥": 6771,
      "lu": 6772,
      "ĠRome": 6773,
      "Ġindust": 6774,
      "ĠGoogle": 6775,
      "Ġve": 6776,
      "ãĤħãģĨ": 6777,
      "Ġå¤ª": 6778,
      "Û±Û": 6779,
      "ç´Ļ": 6780,
      "iÃ¨res": 6781,
      "ç½ª": 6782,
      "mon": 6783,
      "rik": 6784,
      "çŃĨ": 6785,
      "Ġqualif": 6786,
      "çµĦç¹Ķ": 6787,
      "Ġside": 6788,
      "uses": 6789,
      "Ø¯Ø±": 6790,
      "Ġmodern": 6791,
      "ĠCycl": 6792,
      "atell": 6793,
      "ĠEv": 6794,
      "ĠHo": 6795,
      "çģ½": 6796,
      "ç¬¬ä¸Ģ": 6797,
      "Ġ400": 6798,
      "ãĢĤãĢĮ": 6799,
      "ãģĭãĤĬ": 6800,
      "éĩĪ": 6801,
      "SN": 6802,
      "ohl": 6803,
      "ĠãĤ¦ãĤ§": 6804,
      "ĠKen": 6805,
      "æķĻä¼ļ": 6806,
      "ĠRoad": 6807,
      "ĠãĤ¦ãĤ£ãĤŃãĥĩãĥ¼ãĤ¿ãģ«ãģĤãĤĭ": 6808,
      "åľ§": 6809,
      "ãĤĴãĤĤ": 6810,
      "ĠStat": 6811,
      "ĠVers": 6812,
      "ãĥ¼ãĤµãĥ¼": 6813,
      "ãģ®æĪ¦ãģĦ": 6814,
      "hai": 6815,
      "ĠWith": 6816,
      "ĠTop": 6817,
      "ãģ®æµ": 6818,
      "ãģ¾ãģŁãģ¯": 6819,
      "ãĥĻãĥ³ãĥĪ": 6820,
      "Ġäºº": 6821,
      "dr": 6822,
      "åŃ¦éĻ¢": 6823,
      "ĠÙħÙĦÛĮ": 6824,
      "éľĩ": 6825,
      "Ġlike": 6826,
      "istes": 6827,
      "ibt": 6828,
      "ĠTown": 6829,
      "Ġlevel": 6830,
      "cel": 6831,
      "SP": 6832,
      "ĠHor": 6833,
      "isÃ©e": 6834,
      "Ġé£": 6835,
      "Ġdern": 6836,
      "Ġacid": 6837,
      "ÑĤ": 6838,
      "è¡£": 6839,
      "åĵ²": 6840,
      "ÙģÛĮÙĦÙħ": 6841,
      "Ġrepl": 6842,
      "ç·¯": 6843,
      "Ġéĩİ": 6844,
      "arts": 6845,
      "igkeit": 6846,
      "jo": 6847,
      "çĪĨ": 6848,
      "ãĥ¢ãĥĩãĥ«": 6849,
      "æĭł": 6850,
      "ĠØ¢Ø±": 6851,
      "allel": 6852,
      "å¹¹": 6853,
      "Ġfond": 6854,
      "ĠBah": 6855,
      "ĠEth": 6856,
      "åıİéĮ²": 6857,
      "Ġdebut": 6858,
      "è«¸å³¶": 6859,
      "æłĦ": 6860,
      "ãĤ¹ãĥĳ": 6861,
      "crit": 6862,
      "å°ıèª¬": 6863,
      "å¥ĳç´Ħ": 6864,
      "uy": 6865,
      "Ġ60": 6866,
      "ecut": 6867,
      "ĠWater": 6868,
      "uten": 6869,
      "ĠRod": 6870,
      "Ã¶ff": 6871,
      "Ġges": 6872,
      "ĠGND": 6873,
      "Ġoctobre": 6874,
      "cal": 6875,
      "æ¸¬": 6876,
      "Ġavril": 6877,
      "erie": 6878,
      "Ġgroupe": 6879,
      "ä»ģ": 6880,
      "ĠJahrhundert": 6881,
      "Ġ1958": 6882,
      "ĠBei": 6883,
      "reland": 6884,
      "Ġattack": 6885,
      "Ġofficial": 6886,
      "æĿ¯": 6887,
      "bit": 6888,
      "å¤ļãģĦ": 6889,
      "oid": 6890,
      "76": 6891,
      "ĠéŁ³": 6892,
      "Ġpeu": 6893,
      "Ġèµ": 6894,
      "ãĤµãĥĥãĤ«ãĥ¼éģ¸æīĭ": 6895,
      "ĠPop": 6896,
      "çµ¦": 6897,
      "gency": 6898,
      "rift": 6899,
      "æĸĩåº«": 6900,
      "ĠAsia": 6901,
      "ĠRÃ©publique": 6902,
      "col": 6903,
      "ĠåİŁ": 6904,
      "ipl": 6905,
      "ture": 6906,
      "ãĥ¬ãĥ³ãĤ¸": 6907,
      "ĠRog": 6908,
      "ĠØ§ÛĮØ§ÙĦØ§Øª": 6909,
      "mi": 6910,
      "Ġland": 6911,
      "ĠScience": 6912,
      "Ġchampionn": 6913,
      "åĢĻ": 6914,
      "ãĥ©ãĥ³ãĥĢ": 6915,
      "Ġ500": 6916,
      "ãĥ«ãĥł": 6917,
      "Ġå¥³": 6918,
      "ella": 6919,
      "ĠPresident": 6920,
      "liga": 6921,
      "ĠFar": 6922,
      "Ġdefe": 6923,
      "ãĥĩãĤ¶": 6924,
      "ĠEconom": 6925,
      "æī¿": 6926,
      "ãĥįãĤ¹": 6927,
      "2003": 6928,
      "gie": 6929,
      "usse": 6930,
      "ç¸Ħ": 6931,
      "ET": 6932,
      "ĠSÃ¼d": 6933,
      "ĠGab": 6934,
      "Ġçİ": 6935,
      "ãģĻãĤĭãģĵãģ¨ãģĮ": 6936,
      "éĥ¨ãģ®": 6937,
      "Ã±": 6938,
      "lections": 6939,
      "Ġç¾İ": 6940,
      "ĠDuring": 6941,
      "ãĥĲãĥĥãĤ¯": 6942,
      "lete": 6943,
      "ç¬¬äºĮ": 6944,
      "sur": 6945,
      "arten": 6946,
      "Ġthose": 6947,
      "ÙĨØ§ÙħÙĩ": 6948,
      "car": 6949,
      "'t": 6950,
      "æĻ¯": 6951,
      "Ø§ÙĨØ´": 6952,
      "èĩªæ²»": 6953,
      "å£Ĭ": 6954,
      "obal": 6955,
      "ĠØªÛĮÙħ": 6956,
      "ĠAndre": 6957,
      "DF": 6958,
      "AmÃ©rique": 6959,
      "Ġ1954": 6960,
      "stadt": 6961,
      "ä¸Ģéĥİ": 6962,
      "Ø´Ø¯Ùĩ": 6963,
      "ãĤįãģĨ": 6964,
      "åĸľ": 6965,
      "åĽ£ä½ĵ": 6966,
      "assen": 6967,
      "å¹´éĸĵ": 6968,
      "Ġnow": 6969,
      "ãĥ³ãĥĬ": 6970,
      "ç§ģ": 6971,
      "åŃ¦çĶŁ": 6972,
      "ĠVIAFèŃĺåĪ¥åŃĲãģĮæĮĩå®ļãģķãĤĮãģ¦ãģĦãĤĭè¨ĺäºĭ": 6973,
      "Ø¨Ø§Ø²ÛĮÚ©ÙĨØ§ÙĨ": 6974,
      "ç«¹": 6975,
      "UR": 6976,
      "Ġconn": 6977,
      "agazine": 6978,
      "text": 6979,
      "erschied": 6980,
      "æ½Ł": 6981,
      "riÃ¨re": 6982,
      "ĠProgress": 6983,
      "ãģĭãģĦ": 6984,
      "ĠTokyo": 6985,
      "Ġ1955": 6986,
      "ĠIce": 6987,
      "reen": 6988,
      "ĠTak": 6989,
      "stein": 6990,
      "Ġåĩºåħ¸ãĤĴå¿ħè¦ģãģ¨ãģĻãĤĭ": 6991,
      "pha": 6992,
      "oritÃ©": 6993,
      "ĠJahren": 6994,
      "Ġbar": 6995,
      "ĠåĲįåı¤å±ĭ": 6996,
      "çĶŁæ´»": 6997,
      "å®Łæĸ½": 6998,
      "ĠcrÃ©": 6999,
      "ĠæĽ": 7000,
      "ĠMov": 7001,
      "ĠNumber": 7002,
      "ĠFol": 7003,
      "uppe": 7004,
      "74": 7005,
      "Ġdirect": 7006,
      "åĬĽãĤĴ": 7007,
      "Ġ1947": 7008,
      "Ø§Ø±Ø¯": 7009,
      "ãĥ³ãĤµãĥ¼": 7010,
      "ä¹ĥ": 7011,
      "çµĦåĲĪ": 7012,
      "ribution": 7013,
      "éĸ£": 7014,
      "Ã¤hl": 7015,
      "Ġestablished": 7016,
      "una": 7017,
      "cean": 7018,
      "ĠGh": 7019,
      "ĠNik": 7020,
      "Ã¨de": 7021,
      "Ã¤hrend": 7022,
      "Ø´ÙĪØ¯": 7023,
      "Ġsoll": 7024,
      "èıľ": 7025,
      "ĠInc": 7026,
      "omme": 7027,
      "ĠSand": 7028,
      "Ġintro": 7029,
      "folg": 7030,
      "ãĤ·ãĥ£ãĥ«": 7031,
      "IR": 7032,
      "ĠBan": 7033,
      "ãĤ¤ãĤ¨": 7034,
      "ãĥĲãĥ³ãĥī": 7035,
      "Ġproject": 7036,
      "Ġold": 7037,
      "ĠsÃ©": 7038,
      "ĠJim": 7039,
      "ãĥ¼ãĤ«ãĥ¼": 7040,
      "now": 7041,
      "åħ·": 7042,
      "Ġmodel": 7043,
      "ĠgÃ©nÃ©ral": 7044,
      "æĿ±äº¬éĥ½": 7045,
      "å½¼å¥³": 7046,
      "ĠSecond": 7047,
      "aterial": 7048,
      "ao": 7049,
      "ession": 7050,
      "auer": 7051,
      "ãĤīãģ®": 7052,
      "Ġtown": 7053,
      "ãĥŃãĥ¼ãĤº": 7054,
      "oor": 7055,
      "inden": 7056,
      "éĻ¸ä¸Ĭç«¶æĬĢ": 7057,
      "ĠGall": 7058,
      "ãĤµãĤ¦": 7059,
      "ãĤĴè¡ĮãģĨ": 7060,
      "ãĥ´ãĤ©": 7061,
      "alys": 7062,
      "ãģ®å¥³æĢ§": 7063,
      "èĪİ": 7064,
      "è¨Ģèªŀ": 7065,
      "idence": 7066,
      "ĠLibrary": 7067,
      "Ġrugby": 7068,
      "ãĥ©ãĥĸ": 7069,
      "Ġsans": 7070,
      "Ġprote": 7071,
      "Ġèı": 7072,
      "ĠäºĮ": 7073,
      "gn": 7074,
      "Ġãĥĸãĥ©": 7075,
      "æĺĩ": 7076,
      "å°ĤéĸĢ": 7077,
      "å¤¢": 7078,
      "ĠProfess": 7079,
      "ribut": 7080,
      "æ¹ĸ": 7081,
      "Ġmal": 7082,
      "ĠãĤ¹ãĤ¿": 7083,
      "aque": 7084,
      "ãĥ¼ãĥľ": 7085,
      "Ġavant": 7086,
      "ãĤ«ãĥª": 7087,
      "åĸĦ": 7088,
      "ĠkÃ¶n": 7089,
      "ĠÙħØ¹": 7090,
      "lieÃŁ": 7091,
      "ĠNorthern": 7092,
      "itation": 7093,
      "ãĥķãĥ¬": 7094,
      "ĠEnter": 7095,
      "ĠRet": 7096,
      "ãĥĬãĤ¤": 7097,
      "ietnam": 7098,
      "ĠdÃ©cembre": 7099,
      "Ġlog": 7100,
      "Ġemp": 7101,
      "pal": 7102,
      "ĠBut": 7103,
      "isten": 7104,
      "èŃ°éĻ¢èŃ°åĵ¡": 7105,
      "ãģ®æĺłçĶ»": 7106,
      "Ġ1959": 7107,
      "ÙĨØ¯Ú¯Ø§ÙĨ": 7108,
      "å¯Ħ": 7109,
      "erve": 7110,
      "ãĤ¹ãĥĶ": 7111,
      "Ġallow": 7112,
      "ĠÃ©qu": 7113,
      "ĠÙħØ´": 7114,
      "aria": 7115,
      "cts": 7116,
      "ĠMong": 7117,
      "ãĤĮãģ¦ãģĦãĤĭ": 7118,
      "ĠHaupt": 7119,
      "à¤": 7120,
      "ĠJR": 7121,
      "é£Ľè¡Į": 7122,
      "ĠPak": 7123,
      "æĽ¿": 7124,
      "Naissance": 7125,
      "ãģĭãĤīãģ¯": 7126,
      "ustral": 7127,
      "æĪ¦éĹĺ": 7128,
      "atory": 7129,
      "Ġthough": 7130,
      "Ġtransport": 7131,
      "ãģĿãģĹãģ¦": 7132,
      "Ġclaim": 7133,
      "Ġprofessional": 7134,
      "CD": 7135,
      "ãĤ¸ãĥ¼": 7136,
      "ring": 7137,
      "ĠLive": 7138,
      "éĥ¨åĪĨ": 7139,
      "ĠIreland": 7140,
      "è¢«": 7141,
      "tended": 7142,
      "Ġminist": 7143,
      "ãĥĥãĤ¿": 7144,
      "ĠRegion": 7145,
      "ãĤ¹ãģ®": 7146,
      "ãĥīãĥª": 7147,
      "ĠLiga": 7148,
      "aume": 7149,
      "æİ¡": 7150,
      "ĠFestival": 7151,
      "å¿ł": 7152,
      "å»ºè¨Ń": 7153,
      "2002": 7154,
      "ĠJournal": 7155,
      "Ġcurrent": 7156,
      "Ġè±": 7157,
      "atter": 7158,
      "opt": 7159,
      "Ġhum": 7160,
      "2001": 7161,
      "Ġlo": 7162,
      "Ġ1957": 7163,
      "Ġill": 7164,
      "Ġbi": 7165,
      "ãĤıãĤĮãĤĭ": 7166,
      "ç§Ĵ": 7167,
      "Ġweiter": 7168,
      "Ġreceived": 7169,
      "ĠCopa": 7170,
      "Ġdeutsch": 7171,
      "çĶ£æ¥Ń": 7172,
      "uelle": 7173,
      "ĠBC": 7174,
      "å¹´ä¸ĸçķĮ": 7175,
      "pond": 7176,
      "Ġclos": 7177,
      "Ġimportant": 7178,
      "Ġspe": 7179,
      "Ġsent": 7180,
      "Ã¨res": 7181,
      "Ġå®ĩ": 7182,
      "è¿Ķ": 7183,
      "å¤§æĪ¦": 7184,
      "ĠOut": 7185,
      "Ġplusieurs": 7186,
      "issensch": 7187,
      "Ġsuiv": 7188,
      "ĠBarb": 7189,
      "cyclop": 7190,
      "åĽł": 7191,
      "Ġbeim": 7192,
      "Ġ1940": 7193,
      "Ġvery": 7194,
      "æķ·": 7195,
      "Äį": 7196,
      "ãģĿãģĨ": 7197,
      "Ġincluded": 7198,
      "Ġè¿ĳ": 7199,
      "æįķ": 7200,
      "Ġ36": 7201,
      "çĹħéĻ¢": 7202,
      "ela": 7203,
      "é«ĺéĢŁ": 7204,
      "ĠVictor": 7205,
      "æĶ¿æ²»": 7206,
      "ulaire": 7207,
      "ãģĵãĤĮãģ¯": 7208,
      "âĪ": 7209,
      "ĠØ±ÙĪ": 7210,
      "Ġstill": 7211,
      "vor": 7212,
      "}}}": 7213,
      "ried": 7214,
      "iament": 7215,
      "ĠCarol": 7216,
      "ĠãĤ¤ãĤ®ãĥªãĤ¹": 7217,
      "Ġãģĵãģ®": 7218,
      "éĢ£ç¶ļ": 7219,
      "è¥²": 7220,
      "ĠDisney": 7221,
      "ierten": 7222,
      "åľı": 7223,
      "åĢ¤": 7224,
      "Ä±": 7225,
      "ĠJug": 7226,
      "ãģ®å±": 7227,
      "åħ¨æĹ¥æľ¬": 7228,
      "Ġnature": 7229,
      "iend": 7230,
      "ĠEgypt": 7231,
      "Ġpolitical": 7232,
      "åħĦ": 7233,
      "Ġsold": 7234,
      "ÙħØ§ÙĨÛĮ": 7235,
      "amment": 7236,
      ")}": 7237,
      "éĽ»æ°Ĺ": 7238,
      "Ġ1900": 7239,
      "ethod": 7240,
      "Ġpublished": 7241,
      "Ġtelevision": 7242,
      "ĠAlbert": 7243,
      "stre": 7244,
      "Ġinvol": 7245,
      "ĠGreek": 7246,
      "ĠCr": 7247,
      "Ġspecies": 7248,
      "å®£": 7249,
      "ĠPierre": 7250,
      "Ġpresent": 7251,
      "åĲĮãģĺ": 7252,
      "Te": 7253,
      "ocument": 7254,
      "ĠKat": 7255,
      "ĠtrÃ¨s": 7256,
      "Ġanother": 7257,
      "éĽħ": 7258,
      "engl": 7259,
      "icaine": 7260,
      "ĠOp": 7261,
      "Ġè»": 7262,
      "ledon": 7263,
      "Ġnovembre": 7264,
      "ĠSki": 7265,
      "ymbol": 7266,
      "VD": 7267,
      "LE": 7268,
      "tempor": 7269,
      "ãģ®å°ı": 7270,
      "ĠDire": 7271,
      "phen": 7272,
      "Ġregion": 7273,
      "ĠIsrael": 7274,
      "ãĤ¨ãĥ³ãĤ¸": 7275,
      "ĠISNI": 7276,
      "73": 7277,
      "ĠSC": 7278,
      "ĠMexico": 7279,
      "adian": 7280,
      "ava": 7281,
      "imbledon": 7282,
      "Ġface": 7283,
      "èĩªçĶ±": 7284,
      "ĠØ¨ÛĮ": 7285,
      "aland": 7286,
      "ĠJon": 7287,
      "teurs": 7288,
      "nung": 7289,
      "ãĥªãĥ¼ãĥĪ": 7290,
      "ãĥªãĥĨãĤ£": 7291,
      "ãģ®ãĤ³": 7292,
      "ãĥīãĤ¥": 7293,
      "ĠTHE": 7294,
      "Ġnet": 7295,
      "ä¼ģçĶ»": 7296,
      "ĠØªØ±": 7297,
      "ãĥ³ãĤ²": 7298,
      "ĠDÃ©": 7299,
      "ĠWimbledon": 7300,
      "Ġfa": 7301,
      "æģĭ": 7302,
      "ãĥ³ãĥĪãĥ³": 7303,
      "Ġadditional": 7304,
      "comp": 7305,
      "uls": 7306,
      "ĠMatt": 7307,
      "æĸĩåŃĹ": 7308,
      "SC": 7309,
      "bel": 7310,
      "ĠNam": 7311,
      "Ġtheory": 7312,
      "ãĥŃãĥ¼ãĥŀ": 7313,
      "west": 7314,
      "ãģĭãģĳãģ¦": 7315,
      "liament": 7316,
      "ĠBh": 7317,
      "ĠOtt": 7318,
      "ĠThese": 7319,
      "istics": 7320,
      "Ġçı": 7321,
      "Ġ1951": 7322,
      "æ°´èī¦": 7323,
      "Ġmilitary": 7324,
      "Ġamong": 7325,
      "ĠReich": 7326,
      "mit": 7327,
      "ĠGeorgia": 7328,
      "ĠçĨ": 7329,
      "å±¤": 7330,
      "Ġband": 7331,
      "ĠBrown": 7332,
      "ention": 7333,
      "ãĥªãĤ¨": 7334,
      "ç«¶é¦¬": 7335,
      "ãĤ¯ãĤ¹": 7336,
      "ensive": 7337,
      "èµ·ãģĵ": 7338,
      "ãĤ¸ãĥ«": 7339,
      "oa": 7340,
      "æķ£": 7341,
      "ĠMÃ¤nner": 7342,
      "Ġcaus": 7343,
      "idae": 7344,
      "Ġremp": 7345,
      "Ãªte": 7346,
      "fte": 7347,
      "ãĤĴçµĮ": 7348,
      "ĠHaw": 7349,
      "ĠAlp": 7350,
      "âĨĴ": 7351,
      "ĠTru": 7352,
      "ĠåĮĹæµ·éģĵ": 7353,
      "çĩ": 7354,
      "Ġmont": 7355,
      "ĠåĬł": 7356,
      "ple": 7357,
      "win": 7358,
      "èĦ±": 7359,
      "åŃĿ": 7360,
      "ãĥ³ãĥĻ": 7361,
      "¬¼": 7362,
      "å¶": 7363,
      "åĬ´åĥį": 7364,
      "ĠPerson": 7365,
      "æ¢¨": 7366,
      "è£½ä½ľ": 7367,
      "LB": 7368,
      "ĠCentre": 7369,
      "hin": 7370,
      "ways": 7371,
      "ellt": 7372,
      "Ġfort": 7373,
      "ĠThai": 7374,
      "ician": 7375,
      "Ø§Ø¦": 7376,
      "aise": 7377,
      "ardo": 7378,
      "Ġmusique": 7379,
      "rov": 7380,
      "Ġcategory": 7381,
      "ĠSi": 7382,
      "ĠAvenue": 7383,
      "itecture": 7384,
      "Ã©bauche": 7385,
      "ĠJack": 7386,
      "usammen": 7387,
      "amille": 7388,
      "ĠÚ©ÙĦ": 7389,
      "éł¼": 7390,
      "ĠMinister": 7391,
      "Ġeven": 7392,
      "Ġbase": 7393,
      "ĠGolden": 7394,
      "å»¶": 7395,
      "é¹¿": 7396,
      "Ġopp": 7397,
      "ĠÙĤØ±": 7398,
      "zeug": 7399,
      "ãģŁãģł": 7400,
      "fÃ©rence": 7401,
      "Ġ1953": 7402,
      "ĠDomin": 7403,
      "Ġsett": 7404,
      "urity": 7405,
      "Ġåľ°çĲĨ": 7406,
      "bst": 7407,
      "Ġpet": 7408,
      "lle": 7409,
      "ĠØ¨ÛĮÙĨ": 7410,
      "ĠChine": 7411,
      "äººæ°ĳåħ±åĴĮåĽ½": 7412,
      "Joueur": 7413,
      "å¾ĭ": 7414,
      "72": 7415,
      "Ġpriv": 7416,
      "ç´Ķ": 7417,
      "Ġeconom": 7418,
      "79": 7419,
      "ĠSouthern": 7420,
      "çĻºçĶŁ": 7421,
      "éĢļä¿¡": 7422,
      "Ġetwa": 7423,
      "ĠJuli": 7424,
      "Jap": 7425,
      "ĠBaron": 7426,
      "ãģ«ãģªãĤĬ": 7427,
      "ĠBulgar": 7428,
      "ester": 7429,
      "kh": 7430,
      "wen": 7431,
      "è²»": 7432,
      "ãĤ¯ãĤ·ãĥ§ãĥ³": 7433,
      "Ġdead": 7434,
      "istic": 7435,
      "feld": 7436,
      "ãĥ©ãĥªãĤ¢": 7437,
      "æµ©": 7438,
      "Ġvideo": 7439,
      "Ã¤ng": 7440,
      "éĿ¢ãĥ©ãĤ¤": 7441,
      "ĠJuni": 7442,
      "Ġphil": 7443,
      "ĠPages": 7444,
      "idÃ©": 7445,
      "ãĤ¯ãĤ»": 7446,
      "ĠÙĪÛĮ": 7447,
      "Ġgeb": 7448,
      "ãģ®ãģ§": 7449,
      "å¹¼": 7450,
      "çĬ¶æħĭ": 7451,
      "æ±ºåĭĿ": 7452,
      "ĠBroad": 7453,
      "Ġexper": 7454,
      "ï¼ı": 7455,
      "ora": 7456,
      "ĠBlue": 7457,
      "ãĥ¼ãĥĩãĥ³": 7458,
      "ÙĪØ±Ø¯": 7459,
      "Ġinvest": 7460,
      "ask": 7461,
      "Ġæ¼Ķ": 7462,
      "ĠNat": 7463,
      "Ġæ´": 7464,
      "ocratic": 7465,
      "çİĭåĽ½": 7466,
      "Ġprevious": 7467,
      "éģ©": 7468,
      "è¨ª": 7469,
      "ãĤªãĥ¼ãĥĹãĥ³": 7470,
      "ĠÙģÛĮÙĦÙħ": 7471,
      "annel": 7472,
      "ĠÙħØ±Ø¯": 7473,
      "Ã©tique": 7474,
      "ãĥ©ãĤ¯ãĤ¿ãĥ¼": 7475,
      "acing": 7476,
      "Ġpropos": 7477,
      "åĽ½æ°ĳ": 7478,
      "ãĤĭãģ¨": 7479,
      "ãĥŁãĥĭ": 7480,
      "ifs": 7481,
      "ãĥķãĥ«": 7482,
      "ĠUSA": 7483,
      "Ġlocated": 7484,
      "ãģ®æ¨": 7485,
      "Ġcommer": 7486,
      "ĠBahn": 7487,
      "Ġze": 7488,
      "ultural": 7489,
      "ãĥ³ãĥ¡": 7490,
      "æĹħå®¢": 7491,
      "ashi": 7492,
      "Ġpopular": 7493,
      "ski": 7494,
      "ĠMÃ¤r": 7495,
      "Ġvan": 7496,
      "ĠCathol": 7497,
      "ĠÛµ": 7498,
      "ä»ĺãģĳ": 7499,
      "Ġolympique": 7500,
      "ãģĹãģªãģĦ": 7501,
      "album": 7502,
      "ĠØºØ±Ø¨ÛĮ": 7503,
      "ãĥ¼ãĤ·ãĥ§": 7504,
      "unter": 7505,
      "è¼Ŀ": 7506,
      "poration": 7507,
      "ĠØ´Ø±ÙĤÛĮ": 7508,
      "ĠLake": 7509,
      "ä¸ĺ": 7510,
      "ĠYear": 7511,
      "å¼Ł": 7512,
      "Ġ1944": 7513,
      "Ġfunction": 7514,
      "Ġcomplet": 7515,
      "Ġbeh": 7516,
      "ç·ł": 7517,
      "ĠJew": 7518,
      "ĠHung": 7519,
      "çµ¶": 7520,
      "Ġindividual": 7521,
      "ores": 7522,
      "utch": 7523,
      "ĠçĦ": 7524,
      "atab": 7525,
      "ĠOkt": 7526,
      "ĠprÃ©": 7527,
      "dependent": 7528,
      "Ġlate": 7529,
      "ãĥĲãĥ³ãĤ¯": 7530,
      "uisse": 7531,
      "ãĥ³ãĤ¼": 7532,
      "ä»¥å¤ĸ": 7533,
      "Ġä¸ĭ": 7534,
      "Ġsi": 7535,
      "ä½ľå®¶": 7536,
      "ãĥ³ãĥĢãĥ¼": 7537,
      "olo": 7538,
      "Ġæ¸ħ": 7539,
      "§å·ŀ": 7540,
      "ĠGirl": 7541,
      "Ġæ¯": 7542,
      "äºĭæķħ": 7543,
      "Ġu": 7544,
      "æĽ¸åºĹ": 7545,
      "azz": 7546,
      "è£ģåĪ¤": 7547,
      "Ġparallel": 7548,
      "Ø¨Ø§Ø±": 7549,
      "ĠRot": 7550,
      "weiz": 7551,
      "Ġleague": 7552,
      "Ġmasculin": 7553,
      "ĠAqu": 7554,
      "ÙĪÙĦÛĮ": 7555,
      "Ġãģ¨": 7556,
      "ĠfÃ©minin": 7557,
      "Ġassoci": 7558,
      "Allemagne": 7559,
      "Ġ1930": 7560,
      "ĠUnder": 7561,
      "ãĤ¹ãĥļãĤ¤ãĥ³": 7562,
      "ĠfÃ¼": 7563,
      "Ã´le": 7564,
      "å¹´ãģ®éĩİçĲĥ": 7565,
      "ouvernement": 7566,
      "ç¿Į": 7567,
      "åħĥåīį": 7568,
      "áĥ": 7569,
      "ĠTurk": 7570,
      "å¹´ãĤ½": 7571,
      "zech": 7572,
      "ãĤ¤ãĥ©": 7573,
      "hab": 7574,
      "fre": 7575,
      "Ã¤d": 7576,
      "ãĥŀãĤ¸": 7577,
      "eller": 7578,
      "ĠWhen": 7579,
      "ĠYouTube": 7580,
      "ĠMachine": 7581,
      "ĠNiger": 7582,
      "emble": 7583,
      "æŀļ": 7584,
      "century": 7585,
      "ĠJosÃ©": 7586,
      "ĠJanuar": 7587,
      "Ġgoal": 7588,
      "Ġresearch": 7589,
      "ommun": 7590,
      "ĠGod": 7591,
      "æŁĵ": 7592,
      "OW": 7593,
      "Ġèĭ±èªŀ": 7594,
      "ãģ®ãĤĪãģĨãģª": 7595,
      "enk": 7596,
      "Ġship": 7597,
      "Ġword": 7598,
      "ĠSweden": 7599,
      "ĠæĺŃåĴĮ": 7600,
      "ĠTaiwan": 7601,
      "ĠHam": 7602,
      "ãģ®åīį": 7603,
      "Ġmake": 7604,
      "Ã©ra": 7605,
      "osa": 7606,
      "ãĤ·ãĥ§ãĥĬãĥ«": 7607,
      "Åĵ": 7608,
      "eau": 7609,
      "ĠGren": 7610,
      "New": 7611,
      "ãĥ³ãģ¯": 7612,
      "ãĥĥãĤŃ": 7613,
      "ãĤĤãģ®ãģ®": 7614,
      "å¹Į": 7615,
      "Ġjusqu": 7616,
      "ãģŀãĤĮ": 7617,
      "Ġdevelopment": 7618,
      "Ġmember": 7619,
      "ĠØ¬ÙĨÙĪ": 7620,
      "ĠFederation": 7621,
      "Ġanim": 7622,
      "ãĤĴå¾Ĺ": 7623,
      "éĢļå¸¸": 7624,
      "æµ·è»į": 7625,
      "71": 7626,
      "ĠWikipedia": 7627,
      "ãĥ¨ãĥ¼ãĥŃãĥĥãĥĳ": 7628,
      "ãĤªãĥ¼ãĥ«": 7629,
      "çĪµ": 7630,
      "ĠBiographie": 7631,
      "cks": 7632,
      "oms": 7633,
      "èĢħãģĮ": 7634,
      "Ġåł": 7635,
      "Ġ1949": 7636,
      "ãģĿãĤĮãģŀãĤĮ": 7637,
      "Ø§Ø¬": 7638,
      "ĠSwimming": 7639,
      "ĠMaria": 7640,
      "ĠØ®Ø±Ø¯": 7641,
      "des": 7642,
      "Ġdiese": 7643,
      "ÃŃn": 7644,
      "ãģŁãĤĬ": 7645,
      "Ġwritten": 7646,
      "ĠBal": 7647,
      "Ġsigned": 7648,
      "ãģĵãģ¨ãģĭãĤī": 7649,
      "Ġaviation": 7650,
      "ĠPhilip": 7651,
      "æĶ»æĴĥ": 7652,
      "ãĥ¼ãĤ±": 7653,
      "æĹĹ": 7654,
      "ĠTransport": 7655,
      "Ġ1908": 7656,
      "è»¢è»Ĭ": 7657,
      "ĠAtt": 7658,
      "ĠUkraine": 7659,
      "Ġiss": 7660,
      "ĠBos": 7661,
      "ãĤīãģļ": 7662,
      "ãĥ«ãĤ¿": 7663,
      "ĠAlbum": 7664,
      "Ġdivision": 7665,
      "ãģ«å¯¾ãģĻãĤĭ": 7666,
      "ä¸Ńãģ«": 7667,
      "çł²": 7668,
      "ãģ®äºº": 7669,
      "itsch": 7670,
      "Ġæģ": 7671,
      "Ġopt": 7672,
      "ĠUne": 7673,
      "Ġ45": 7674,
      "ĠNHK": 7675,
      "å¹´ãģ®èĪªç©º": 7676,
      "sequ": 7677,
      "æĸİ": 7678,
      "Ġæ²³": 7679,
      "hard": 7680,
      "¶´": 7681,
      "ãĥŁãĤ¢": 7682,
      "ĠåľŁ": 7683,
      "Ġtout": 7684,
      "éĢĨ": 7685,
      "èĬ¸è¡ĵ": 7686,
      "eror": 7687,
      "asser": 7688,
      "ĠVert": 7689,
      "ĠBang": 7690,
      "ãĥŃãĥĥãĤ¯": 7691,
      "endant": 7692,
      "ables": 7693,
      "aÃ®": 7694,
      "ĠCongress": 7695,
      "æĩ": 7696,
      "Ġprof": 7697,
      "ĠDou": 7698,
      "ãģ²ãģ¨": 7699,
      "è£½éĢł": 7700,
      "Ġwebsite": 7701,
      "ĠOber": 7702,
      "ny": 7703,
      "atures": 7704,
      "ĸç¸Ħ": 7705,
      "ÅĤ": 7706,
      "ãģ®åĳ": 7707,
      "Ġ34": 7708,
      "Ġfront": 7709,
      "èĹ©": 7710,
      "ĠçľŁ": 7711,
      "ynam": 7712,
      "ĠNight": 7713,
      "ĠDef": 7714,
      "ÙĪØ¨": 7715,
      "Ġten": 7716,
      "Ġ1912": 7717,
      "ÙħÛĮÙĨ": 7718,
      "é¨İ": 7719,
      "éģĭåĸ¶": 7720,
      "çĭ¬ç«ĭ": 7721,
      "ĠDeutsche": 7722,
      "å°±ä»»": 7723,
      "pisode": 7724,
      "BI": 7725,
      "èĪŀåı°": 7726,
      "æ»ħ": 7727,
      "åĲĽ": 7728,
      "ographic": 7729,
      "Ġneeding": 7730,
      "ĠDist": 7731,
      "Ġgiven": 7732,
      "Ġrock": 7733,
      "ĠStr": 7734,
      "oney": 7735,
      "chi": 7736,
      "Ġfootballers": 7737,
      "CL": 7738,
      "mark": 7739,
      "anden": 7740,
      "ĠIndust": 7741,
      "ĠdÃ©s": 7742,
      "Ġbuilt": 7743,
      "éĸī": 7744,
      "acy": 7745,
      "aken": 7746,
      "Cl": 7747,
      "ä¾Ŀ": 7748,
      "Ð»": 7749,
      "orial": 7750,
      "ä½³": 7751,
      "æĪ»": 7752,
      "stitution": 7753,
      "ĠBab": 7754,
      "èĢħãģ¯": 7755,
      "ĠDam": 7756,
      "ãģ¨è¨Ģ": 7757,
      "ãĤ¤ãĥ³ãĤ°": 7758,
      "cos": 7759,
      "åīįãģ«": 7760,
      "ÙĨØ§Ø³Ùĩ": 7761,
      "ension": 7762,
      "Ġnorm": 7763,
      "ĠErn": 7764,
      "ĠfranÃ§aise": 7765,
      "ä»²": 7766,
      "ĠLy": 7767,
      "Or": 7768,
      "ãģ®åŃĲ": 7769,
      "ĠAustria": 7770,
      "ĠFÃ¼r": 7771,
      "ãĥªãĤ³": 7772,
      "ĠMiche": 7773,
      "Ġcontract": 7774,
      "Ġconten": 7775,
      "edy": 7776,
      "æ¨ª": 7777,
      "Ġir": 7778,
      "ãģ¨ãģĹãģ¦ãģ¯": 7779,
      "ĠÙĩÙħØ±": 7780,
      "ÃŃa": 7781,
      "çĴ°å¢ĥ": 7782,
      "çľĮç«ĭ": 7783,
      "ãģŁãģĦ": 7784,
      "ĠspÃ¤ter": 7785,
      "ĠNag": 7786,
      "ĬĢ": 7787,
      "ĠProdu": 7788,
      "yer": 7789,
      "ĠRay": 7790,
      "Esp": 7791,
      "Ù¾Ø¯ÛĮ": 7792,
      "ĠMÃ¼n": 7793,
      "Ġital": 7794,
      "ãĤ¢ãĥ³ãĥī": 7795,
      "ä¼¼": 7796,
      "ĠMalays": 7797,
      "BD": 7798,
      "ĠST": 7799,
      "Ġhuman": 7800,
      "ãĥĹãĥŃéĩİçĲĥ": 7801,
      "prise": 7802,
      "ç¨²": 7803,
      "ãĥķãĥŃ": 7804,
      "ĠÃ¤": 7805,
      "adel": 7806,
      "ĠéīĦéģĵ": 7807,
      "ãĤ¯ãĥ¬": 7808,
      "mal": 7809,
      "ĠSingles": 7810,
      "ä¼¯": 7811,
      "cou": 7812,
      "Ġscience": 7813,
      "aged": 7814,
      "rer": 7815,
      "Ġrole": 7816,
      "ÙħÙĨ": 7817,
      "iÃ³n": 7818,
      "ĠLiber": 7819,
      "Ġsimilar": 7820,
      "isa": 7821,
      "åĤ·": 7822,
      "ĠOktober": 7823,
      "Ġtrav": 7824,
      "ĠSea": 7825,
      "ãģĽãĤĵ": 7826,
      "etic": 7827,
      "lÃ¤": 7828,
      "ĠVen": 7829,
      "Ġexample": 7830,
      "ĠWilliams": 7831,
      "ociÃ©tÃ©": 7832,
      "Ù¾Ø¯ÛĮØ§ÛĮ": 7833,
      "ĠæŁ": 7834,
      "åį°": 7835,
      "irtschaft": 7836,
      "icy": 7837,
      "ests": 7838,
      "ãĥĭãĤ¹": 7839,
      "Ġsug": 7840,
      "ĠÙĩÙħØ±Ø§Ùĩ": 7841,
      "Ġbere": 7842,
      "ãĥĪãĥ¬": 7843,
      "ĠReal": 7844,
      "ãĤ¢ãĤ¤ãĥīãĥ«": 7845,
      "ovo": 7846,
      "ĠAirlines": 7847,
      "éľĬ": 7848,
      "Ġæľī": 7849,
      "ĠåĴĮ": 7850,
      "ãĤ¤ãĥĻãĥ³ãĥĪ": 7851,
      "Ġmic": 7852,
      "ĠColomb": 7853,
      "fred": 7854,
      "éļĽãģ«": 7855,
      "Ġtimes": 7856,
      "ĠBras": 7857,
      "ĠEuro": 7858,
      "Ã¼tz": 7859,
      "Ġ33": 7860,
      "Ġ1946": 7861,
      "ario": 7862,
      "athlet": 7863,
      "Ġtemps": 7864,
      "ãģ®å»º": 7865,
      "Ġur": 7866,
      "ĠEuropa": 7867,
      "Ġhelp": 7868,
      "ä¸¦": 7869,
      "ieu": 7870,
      "ĠFranz": 7871,
      "Ġ1941": 7872,
      "aves": 7873,
      "estyle": 7874,
      "Ġèµ¤": 7875,
      "ĠCzech": 7876,
      "ĠArchive": 7877,
      "³¶": 7878,
      "ĠFigure": 7879,
      "ĠLeon": 7880,
      "ĠCD": 7881,
      "æ°ĳåĽ½": 7882,
      "ĠLandkreis": 7883,
      "ĠDez": 7884,
      "æ¸Ľ": 7885,
      "Ġnationale": 7886,
      "ĠCR": 7887,
      "ĠVill": 7888,
      "ĠLor": 7889,
      "ĠGuerre": 7890,
      "åĺ": 7891,
      "æ½ľæ°´èī¦": 7892,
      "ãĥ«ãĤ³": 7893,
      "ĠOfficial": 7894,
      "ĠPM": 7895,
      "ĠLangu": 7896,
      "åĲįãģ¯": 7897,
      "osition": 7898,
      "Ġèį": 7899,
      "ĠØ§Øª": 7900,
      "het": 7901,
      "æ§ĭæĪĲ": 7902,
      "Ġident": 7903,
      "overnor": 7904,
      "PS": 7905,
      "çī©é¤¨": 7906,
      "ãģ®æİ": 7907,
      "ĠCas": 7908,
      "kehr": 7909,
      "ãĥ¡ãĥĢãĥ«": 7910,
      "zz": 7911,
      "ãĥ¬ãĥ¼ãĥĪ": 7912,
      "Ġvict": 7913,
      "æ¯Ľ": 7914,
      "Ġgroups": 7915,
      "Ġscient": 7916,
      "æķĳ": 7917,
      "oma": 7918,
      "å¾Įãģ¯": 7919,
      "ĠDisc": 7920,
      "ĠDepartment": 7921,
      "ĠZealand": 7922,
      "ĠLiteratur": 7923,
      "antes": 7924,
      "Ġdefin": 7925,
      "Ġev": 7926,
      "çĶŁçĶ£": 7927,
      "ĠTable": 7928,
      "ĠåĲĮ": 7929,
      "ãĤ®ãĥ¥ãĤ¢": 7930,
      "Ġãĥģãĥ£": 7931,
      "ynasty": 7932,
      "sport": 7933,
      "ĠRio": 7934,
      "aro": 7935,
      "Ġconstruction": 7936,
      "alitÃ©": 7937,
      "ĠStan": 7938,
      "ãĤ¤ãĥĪãĥ«": 7939,
      "ĠTy": 7940,
      "ĠCatholic": 7941,
      "Bi": 7942,
      "ãĤµãĤ¤": 7943,
      "mic": 7944,
      "ĠçŁ": 7945,
      "bew": 7946,
      "ãĥĢãĥł": 7947,
      "hority": 7948,
      "ãĥĨãĥ¬ãĥĵãĥīãĥ©ãĥŀ": 7949,
      "oration": 7950,
      "mas": 7951,
      "éħįä¿¡": 7952,
      "ĠKenn": 7953,
      "æī±": 7954,
      "ĠZwe": 7955,
      "ĠSab": 7956,
      "ãģ©ãģĨ": 7957,
      "æĽ¸æĪ¿": 7958,
      "ĠFrancisco": 7959,
      "ãĤªãĤ¹": 7960,
      "ĠKa": 7961,
      "asion": 7962,
      "unch": 7963,
      "ãĥĬãĥł": 7964,
      "ni": 7965,
      "ãĥ¼ãĤ¨": 7966,
      "PA": 7967,
      "ĠField": 7968,
      "zent": 7969,
      "dam": 7970,
      "ĠåĽĽ": 7971,
      "å¸Ĥãģ®": 7972,
      "ãģ¨ãģ¨ãĤĤãģ«": 7973,
      "ators": 7974,
      "åŃ¦ä¼ļ": 7975,
      "ĠQual": 7976,
      "Ġäºķ": 7977,
      "Ġrefer": 7978,
      "lance": 7979,
      "lage": 7980,
      "rale": 7981,
      "1999": 7982,
      "ached": 7983,
      "Ġweit": 7984,
      "1990": 7985,
      "halten": 7986,
      "Ġé»Ĵ": 7987,
      "ãĥ«ãĥĦ": 7988,
      "ãģ®åŁº": 7989,
      "ĠØ¨Ø§Ø²": 7990,
      "Ġabs": 7991,
      "ĠBow": 7992,
      "ĠOld": 7993,
      "ĠDoi": 7994,
      "ĠUCI": 7995,
      "çĻºè¡Į": 7996,
      "ĠMÃ¤rz": 7997,
      "éĸĵãģ«": 7998,
      "äºĪéģ¸": 7999,
      "ĠWall": 8000,
      "æĪ¦ãģ§": 8001,
      "ĠIndones": 8002,
      "ĠdÃ©velop": 8003,
      "ãģ®æģ": 8004,
      "éĥ¨ãģ«": 8005,
      "ĠGard": 8006,
      "Ġè²": 8007,
      "Ġcountries": 8008,
      "ãģ§ãģ¯ãģªãģĦ": 8009,
      "enez": 8010,
      "Afr": 8011,
      "ĠGew": 8012,
      "ĠVietnam": 8013,
      "Ġhost": 8014,
      "ãĤĴæĬ": 8015,
      "Ġmuch": 8016,
      "uments": 8017,
      "SS": 8018,
      "geme": 8019,
      "Ã¸": 8020,
      "aco": 8021,
      "ĠzurÃ¼ck": 8022,
      "ĠCourt": 8023,
      "éħĴ": 8024,
      "Ġåı°": 8025,
      "ĠRugby": 8026,
      "ï¼īãĢį": 8027,
      "ĠÙĪØ±": 8028,
      "American": 8029,
      "avy": 8030,
      "tegr": 8031,
      "iance": 8032,
      "æŀľãģŁ": 8033,
      "entlich": 8034,
      "ĠCirc": 8035,
      "acks": 8036,
      "xy": 8037,
      "æŃ´åı²": 8038,
      "ĠsÃ©rie": 8039,
      "atabase": 8040,
      "ader": 8041,
      "èĺ": 8042,
      "éī": 8043,
      "ãģ¾ãģ¾": 8044,
      "æ¶²": 8045,
      "Ġsimp": 8046,
      "ãģ®æĦ": 8047,
      "Ġrace": 8048,
      "çĬ¯": 8049,
      "è»Ĭä¸¡": 8050,
      "éĽ²": 8051,
      "ãĥĥãĤµ": 8052,
      "ĠBig": 8053,
      "ãĥ©ãĤ¤ãĥĪ": 8054,
      "mathb": 8055,
      "èĥĮ": 8056,
      "ĠPa": 8057,
      "ãģĵãģ¨ãģ¯": 8058,
      "ĠreprÃ©s": 8059,
      "ading": 8060,
      "Ġä»Ĭ": 8061,
      "ĠdiffÃ©r": 8062,
      "ãĤ¢ãĥª": 8063,
      "ãĥ¼ãĥĬãĥ¼": 8064,
      "herlands": 8065,
      "ãĥĩãĤª": 8066,
      "ĠGemeinde": 8067,
      "ĠHon": 8068,
      "udes": 8069,
      "ãĥĸãĥ¬": 8070,
      "ĠÛ²Û°Û°Û": 8071,
      "ĠService": 8072,
      "RA": 8073,
      "year": 8074,
      "terre": 8075,
      "èĢģ": 8076,
      "ÙĤÙĩ": 8077,
      "å¾ħ": 8078,
      "ĠNeb": 8079,
      "ĠæŃ´åı²": 8080,
      "eur": 8081,
      "çī¹ãģ«": 8082,
      "ĠMik": 8083,
      "ç·´": 8084,
      "enen": 8085,
      "ordan": 8086,
      "Xe": 8087,
      "ãĤ¯ãĥ©ãĤ¤": 8088,
      "Ġhaving": 8089,
      "ĠJunior": 8090,
      "ĠprÃ©c": 8091,
      "ĠØ¯Ø§ÙĨØ´": 8092,
      "ãĥĹãĥŃãĥĩãĥ¥": 8093,
      "Ġinst": 8094,
      "Ĭæľ¬": 8095,
      "ĠÙģØ±Ø§ÙĨ": 8096,
      "çĻ»éĮ²": 8097,
      "ĠFebruar": 8098,
      "Sh": 8099,
      "Ġcampaign": 8100,
      "ĠÙħÛĮÙĦ": 8101,
      "sche": 8102,
      "ĠCommission": 8103,
      "Ġmeille": 8104,
      "mploy": 8105,
      "ĠTexas": 8106,
      "ĠYoung": 8107,
      "ĠMotor": 8108,
      "ãĤ¢ãĥķãĥªãĤ«": 8109,
      "ä¼¸": 8110,
      "ump": 8111,
      "Ã©quipe": 8112,
      "BO": 8113,
      "Ġvarious": 8114,
      "ç¥¨": 8115,
      "veau": 8116,
      "çµ±éłĺ": 8117,
      "ares": 8118,
      "Ġforces": 8119,
      "Ġcoordin": 8120,
      "Japan": 8121,
      "ĠAnth": 8122,
      "ĠEarl": 8123,
      "nehmen": 8124,
      "Ġ1939": 8125,
      "ãĤĵãģª": 8126,
      "çĶ·æĢ§": 8127,
      "cial": 8128,
      "ĠJoe": 8129,
      "ĠDra": 8130,
      "ãģĹãģ¾ãģĨ": 8131,
      "Ġkonnte": 8132,
      "Ġvit": 8133,
      "æĻĤä»£ãģ®": 8134,
      "å®ı": 8135,
      "ãĤ¦ãĥĪ": 8136,
      "äº¬éĥ½": 8137,
      "atar": 8138,
      "lekt": 8139,
      "ĠDemocratic": 8140,
      "çŁ¢": 8141,
      "ĠBritain": 8142,
      "ÙĩØ±Ø³Øª": 8143,
      "kin": 8144,
      "Ġrespect": 8145,
      "å½©": 8146,
      "ÙħØ§ÛĮ": 8147,
      "ĠSpe": 8148,
      "ãģªãģ©ãĤĴ": 8149,
      "Ġcondu": 8150,
      "ĠFour": 8151,
      "Ġsex": 8152,
      "Ġfree": 8153,
      "Ġstandard": 8154,
      "hne": 8155,
      "ĠMedia": 8156,
      "ĠOcean": 8157,
      "ĠMongol": 8158,
      "zw": 8159,
      "ception": 8160,
      "ĠKo": 8161,
      "ĠCharl": 8162,
      "ĠrÃ©alis": 8163,
      "ãĥĥãĥĨ": 8164,
      "Aut": 8165,
      "ability": 8166,
      "ĠKy": 8167,
      "englisch": 8168,
      "Ġçı¾": 8169,
      "Ã¼ss": 8170,
      "ĠSingap": 8171,
      "ãĤ°ãĥ¬ãĤ¹": 8172,
      "Ġobject": 8173,
      "Ġreferences": 8174,
      "Ġcomplex": 8175,
      "åŃĲãģ®": 8176,
      "æħ¶": 8177,
      "ĠÛ²Û°Û±Û¶": 8178,
      "éĢĶ": 8179,
      "ftware": 8180,
      "Ġtake": 8181,
      "å¼ģ": 8182,
      "Ġlight": 8183,
      "é«": 8184,
      "ĠIns": 8185,
      "æĢª": 8186,
      "ãĥ¯ãĥ¼": 8187,
      "uns": 8188,
      "Ġpromot": 8189,
      "Ġmi": 8190,
      "ounded": 8191,
      "åĪĿãĤģãģ¦": 8192,
      "rond": 8193,
      "ĠFlag": 8194,
      "Ø³Ú©": 8195,
      "Ġsection": 8196,
      "ĠMagn": 8197,
      "Ãªt": 8198,
      "ĠPower": 8199,
      "Sc": 8200,
      "Ø¹Ùĩ": 8201,
      "ĠInformation": 8202,
      "ç¥ŀç¤¾": 8203,
      "iography": 8204,
      "æľĢãĤĤ": 8205,
      "ircraft": 8206,
      "Ġerste": 8207,
      "å»ºç¯ī": 8208,
      "Ã«": 8209,
      "Ġdri": 8210,
      "ãĤ¿ãĤ¤ãĥł": 8211,
      "çĶºæĿĳ": 8212,
      "æľŃå¹Į": 8213,
      "Ġmunicip": 8214,
      "wahl": 8215,
      "ĠMars": 8216,
      "ĠÚ©ÙĨ": 8217,
      "ãĥŀãĥ©": 8218,
      "å¹´ãĤ¢": 8219,
      "åĢĴ": 8220,
      "ĠJudo": 8221,
      "Ġstarted": 8222,
      "Ġlack": 8223,
      "grÃ¼n": 8224,
      "Ġtax": 8225,
      "ĠEastern": 8226,
      "ãĤ¢ãĤ«": 8227,
      "cÃ©": 8228,
      "ä¸ĸçķĮéģ¸æīĭæ¨©": 8229,
      "ãĥªãĥĥãĤ¯": 8230,
      "ĠãĥķãĤ§": 8231,
      "poque": 8232,
      "ãĤ³ãĥŁ": 8233,
      "irs": 8234,
      "ichtathlet": 8235,
      "ĠResearch": 8236,
      "Ġå¾³": 8237,
      "ãģ¤ãģĭ": 8238,
      "ãĤĬãģ®": 8239,
      "ĠÙħØ¯Ø§Ø±": 8240,
      "ãĤªãĥ³ãĤº": 8241,
      "Ġstructure": 8242,
      "fang": 8243,
      "lected": 8244,
      "ĠCroat": 8245,
      "France": 8246,
      "ãģ«ãģªãģ£ãģ¦ãģĦãĤĭ": 8247,
      "cm": 8248,
      "pons": 8249,
      "Ġhand": 8250,
      "ãĥĶãĤ¢": 8251,
      "rative": 8252,
      "ãĥ¼ãĤª": 8253,
      "å°ĳå¥³": 8254,
      "ãĤ¸ãĥĨãĥ¬ãĥĵ": 8255,
      "Ġsil": 8256,
      "Ġãĥķãĥ©": 8257,
      "Ġautres": 8258,
      "Ġspecial": 8259,
      "ios": 8260,
      "ĠCost": 8261,
      "ĠBataille": 8262,
      "ades": 8263,
      "ãĥĭãĥ¥ãĥ¼ãĤ¹": 8264,
      "Ġcame": 8265,
      "ãģ£ãģ¦ãģĬãĤĬ": 8266,
      "Ġvill": 8267,
      "ĠSin": 8268,
      "çĳ": 8269,
      "æ¼¢": 8270,
      "ç«¶æĬĢå¤§ä¼ļ": 8271,
      "ĠHand": 8272,
      "Ġskating": 8273,
      "Ãītat": 8274,
      "ÙĪÙĩ": 8275,
      "ĠPakistan": 8276,
      "ĠRussie": 8277,
      "Ġwhat": 8278,
      "ĠØªØ§": 8279,
      "ĠAlt": 8280,
      "Ġbox": 8281,
      "rm": 8282,
      "Ġ(@": 8283,
      "ĠRadio": 8284,
      "ãĥ¼ãĥĴ": 8285,
      "Ø§Ø¨Ø¹": 8286,
      "æ®¿": 8287,
      "èĮĤ": 8288,
      "ãģ®å§": 8289,
      "rak": 8290,
      "Ġplant": 8291,
      "Ġgewann": 8292,
      "pielen": 8293,
      "Ġç·¨": 8294,
      "ĠNetherlands": 8295,
      "ãĥ¯ãĥ¼ãĤ¯": 8296,
      "chs": 8297,
      "ç«¥": 8298,
      "stag": 8299,
      "ĠCorporation": 8300,
      "çį£": 8301,
      "ĠWolf": 8302,
      "è²¨çī©": 8303,
      "ĠCette": 8304,
      "ativ": 8305,
      "Ġmaint": 8306,
      "ĠãĤ·ãĥ£": 8307,
      "ãĥ¼ãĤ»": 8308,
      "ĠçĦ¡": 8309,
      "Ġteil": 8310,
      "ĠTod": 8311,
      "Ġext": 8312,
      "Ġäº¬éĥ½": 8313,
      "kson": 8314,
      "ĠMem": 8315,
      "æľĪåı·": 8316,
      "Ġmultip": 8317,
      "ĠUl": 8318,
      "ĠIV": 8319,
      "cul": 8320,
      "ĠæĿ±çµĮ": 8321,
      "Ġ80": 8322,
      "Ġmach": 8323,
      "ĠèĬ±": 8324,
      "esp": 8325,
      "¥æŃ´": 8326,
      "ĠéĽ»": 8327,
      "ĠRelig": 8328,
      "ĠBell": 8329,
      "ãĤ¹ãĥ©": 8330,
      "ĠæĪ¦": 8331,
      "GB": 8332,
      "Ġfon": 8333,
      "Ã¨ce": 8334,
      "ĠTrump": 8335,
      "ĠRess": 8336,
      "well": 8337,
      "ãģ¨åĳ¼ãģ°ãĤĮãĤĭ": 8338,
      "omon": 8339,
      "Ú©Ø§Ø±": 8340,
      "Ġè¦": 8341,
      "çĻºè¦ĭ": 8342,
      "æĴ®": 8343,
      "Ġbecome": 8344,
      "ĠØ¯Ø³Øª": 8345,
      "ĠDezember": 8346,
      "Ġconsidered": 8347,
      "gra": 8348,
      "Ġliter": 8349,
      "Ġcross": 8350,
      "400": 8351,
      "Ġenviron": 8352,
      "ĠEnde": 8353,
      "ĠCanadian": 8354,
      "ãĥ¼ãĥŀãĥ³": 8355,
      "eline": 8356,
      "ç·¨æĽ²": 8357,
      "Ġç§ĭ": 8358,
      "richt": 8359,
      "é«ĺãģĦ": 8360,
      "ĠSite": 8361,
      "Ġath": 8362,
      "Ġturn": 8363,
      "ãĤĴéĢļ": 8364,
      "ĠTwitter": 8365,
      "ĠFree": 8366,
      "ãĢįãĢĤ": 8367,
      "otte": 8368,
      "ĠPen": 8369,
      "ged": 8370,
      "vest": 8371,
      "oston": 8372,
      "ÙħØ¯": 8373,
      "ãĤĴçµĲ": 8374,
      "ĠéŃ": 8375,
      "Ġarticle": 8376,
      "ãĤĴçį²å¾Ĺ": 8377,
      "change": 8378,
      "ãĥ³ãĥĶãĥ¥": 8379,
      "Ġbritann": 8380,
      "Ġcours": 8381,
      "Ķéģĵ": 8382,
      "iny": 8383,
      "Ġvier": 8384,
      "åĲĪãĤıãģĽ": 8385,
      "ĠØ§Ø³ØªÙģ": 8386,
      "Ã´t": 8387,
      "Ġvia": 8388,
      "weight": 8389,
      "èĩªè»¢è»Ĭ": 8390,
      "1998": 8391,
      "ingu": 8392,
      "åĭĩ": 8393,
      "å»ĥæŃ¢": 8394,
      "mat": 8395,
      "ĠSanta": 8396,
      "Ġcro": 8397,
      "åľ°ä¸ĭéīĦ": 8398,
      "ĠUK": 8399,
      "ãĥ¼ãĤ³": 8400,
      "Ġaircraft": 8401,
      "åĽ½ç«ĭ": 8402,
      "æĸ¹æ³ķ": 8403,
      "ĠBeg": 8404,
      "Ġè§": 8405,
      "ĠAle": 8406,
      "èĦļ": 8407,
      "ĠProject": 8408,
      "aps": 8409,
      "ĠFront": 8410,
      "åī£": 8411,
      "èĵ": 8412,
      "éª": 8413,
      "ĠMain": 8414,
      "ĠDec": 8415,
      "æ²Ļ": 8416,
      "Ġbomb": 8417,
      "mond": 8418,
      "ãģ«ä¼´": 8419,
      "ĠãģĿãģ®": 8420,
      "Ġviol": 8421,
      "å®īåħ¨": 8422,
      "ĠãģĦ": 8423,
      "Ġphot": 8424,
      "Ġè£": 8425,
      "Â°": 8426,
      "ãĥĿãĥ¼ãĥĪ": 8427,
      "å¦»": 8428,
      "ĠÙģÙĩØ±Ø³Øª": 8429,
      "ãĥĩãĥĵãĥ¥ãĥ¼": 8430,
      "ww": 8431,
      "Ġdays": 8432,
      "ãģ¨ãģĹ": 8433,
      "åĮĹæµ·éģĵ": 8434,
      "ĠEdward": 8435,
      "mm": 8436,
      "erial": 8437,
      "eta": 8438,
      "å¯¿": 8439,
      "ãĤ®ãĥ¥ãĤ¢ãĤ¹ãĤ±ãĥ¼ãĥĪ": 8440,
      "Ġmarket": 8441,
      "Ø³Ùĩ": 8442,
      "Ġ1938": 8443,
      "Ġæŀ": 8444,
      "Ġverb": 8445,
      "Ġåħ¨åĽ½": 8446,
      "ĠEt": 8447,
      "ĠWild": 8448,
      "Ġproduced": 8449,
      "ĠÙħØ¬": 8450,
      "ĠmÃ¨tres": 8451,
      "ãģ®ä¸»": 8452,
      "Ġåľ¨": 8453,
      "ĠÃĦ": 8454,
      "alympics": 8455,
      "ĠAre": 8456,
      "éģºçĶ£": 8457,
      "ĠæĺłçĶ»": 8458,
      "esis": 8459,
      "æ©Łæ§ĭ": 8460,
      "ç¥Ĳ": 8461,
      "uisine": 8462,
      "ĠkÃ¶nnen": 8463,
      "ãģ«åĬł": 8464,
      "ĠdÃ©m": 8465,
      "KB": 8466,
      "ï¼į": 8467,
      "ãģ®æ¼": 8468,
      "ÙĦØ§Ùħ": 8469,
      "ĠOrt": 8470,
      "ĠWrestling": 8471,
      "uri": 8472,
      "Ã©sil": 8473,
      "Î±": 8474,
      "ĠPays": 8475,
      "ĠKol": 8476,
      "Ġright": 8477,
      "ãĥ³ãĥĢãĥł": 8478,
      "Ġmeas": 8479,
      "chten": 8480,
      "oine": 8481,
      "éłĪ": 8482,
      "ĠOrd": 8483,
      "ĠBrook": 8484,
      "é»Ħ": 8485,
      "Ġproduc": 8486,
      "kn": 8487,
      "èĤī": 8488,
      "Ġdial": 8489,
      "Ġservices": 8490,
      "1996": 8491,
      "Ġreal": 8492,
      "ĠNan": 8493,
      "ãĥĹãĥĪ": 8494,
      "ãģ¨ãģĵãĤį": 8495,
      "ĠLux": 8496,
      "ĠLight": 8497,
      "åĪĨé¡ŀåŃ¦": 8498,
      "ising": 8499,
      "ŀį": 8500,
      "çĶ¨ãģĦ": 8501,
      "ĠÙħÙĨØ§Ø¨Ø¹": 8502,
      "bau": 8503,
      "Ġ1942": 8504,
      "ãĤ«ãĥ¼ãĥī": 8505,
      "Ġkam": 8506,
      "ffic": 8507,
      "zyme": 8508,
      "ĠAlexand": 8509,
      "abei": 8510,
      "ĠPrime": 8511,
      "Ġcover": 8512,
      "ither": 8513,
      "ãģĭãģª": 8514,
      "çµĮåĸ¶": 8515,
      "ĠØ´ÙĨØ§Ø³Ùĩ": 8516,
      "åħ¨ãģ¦": 8517,
      "ä¸Ģæĸ¹": 8518,
      "ãĤ¬ãĤ¹": 8519,
      "Ġexternal": 8520,
      "ĠFil": 8521,
      "æıĲä¾Ľ": 8522,
      "ãĥĩãĤ¶ãĤ¤ãĥ³": 8523,
      "Ġtre": 8524,
      "ãĥªãĤ¢ãĥł": 8525,
      "hydro": 8526,
      "ufa": 8527,
      "ĠFrom": 8528,
      "ĠMoh": 8529,
      "ãģ§ãģ¯ãģªãģı": 8530,
      "ĠRally": 8531,
      "ĠPacific": 8532,
      "Ġ1937": 8533,
      "iser": 8534,
      "Ġcentral": 8535,
      "è»Į": 8536,
      "Ġsyst": 8537,
      "Ġreb": 8538,
      "ĠÛ³": 8539,
      "Ġnotamment": 8540,
      "ĠFriedrich": 8541,
      "300": 8542,
      "ãĥŁãĥ¥ãĥĭ": 8543,
      "ĠJugend": 8544,
      "archive": 8545,
      "Ġhandball": 8546,
      "Her": 8547,
      "Ġspect": 8548,
      "Ø±Ú©Øª": 8549,
      "bek": 8550,
      "åª": 8551,
      "Sp": 8552,
      "ÛĮÙĨÚ¯": 8553,
      "Ġsus": 8554,
      "Ġbirths": 8555,
      "Ġdraft": 8556,
      "ãģ®ãĤĪãģĨãģ«": 8557,
      "Ġç´Ģ": 8558,
      "ĠFlight": 8559,
      "Ġteams": 8560,
      "ĠPhilippines": 8561,
      "ãģ¾ãĤĮãģŁ": 8562,
      "ãĤĴä½¿çĶ¨ãģĹãģ¦ãģĦãĤĭ": 8563,
      "ç¤¼": 8564,
      "åĩºãģĹ": 8565,
      "loss": 8566,
      "çĽĽ": 8567,
      "åħ¼": 8568,
      "æĽľæĹ¥": 8569,
      "ĠBM": 8570,
      "ãĥ¬ãĥ³": 8571,
      "Ġlost": 8572,
      "ĠGood": 8573,
      "ĠWood": 8574,
      "åĽº": 8575,
      "ãĥīãĥ©ãĤ´": 8576,
      "ãģŁãĤĭ": 8577,
      "æ§ĭéĢł": 8578,
      "æľĢå¤§": 8579,
      "ĠèĮ": 8580,
      "ãĤĴæŀľãģŁ": 8581,
      "Ġç¨": 8582,
      "ãĥ¯ãĥ¼ãĥī": 8583,
      "igten": 8584,
      "verse": 8585,
      "...": 8586,
      "1994": 8587,
      "ĠCard": 8588,
      "ãĥĲãĥ©": 8589,
      "bank": 8590,
      "Par": 8591,
      "Ġpan": 8592,
      "Ġ#": 8593,
      "box": 8594,
      "Ġtradition": 8595,
      "Ġ1943": 8596,
      "Ġstates": 8597,
      "Ġavoir": 8598,
      "ĠLim": 8599,
      "isse": 8600,
      "yt": 8601,
      "ÙĪØ±Øª": 8602,
      "ĠãĥĹãĥŃãĤ°ãĥ¬ãĤ¹": 8603,
      "ĠHuman": 8604,
      "Ġä»®": 8605,
      "Ġè±Ĭ": 8606,
      "åºŃ": 8607,
      "argest": 8608,
      "Ġpal": 8609,
      "è»½": 8610,
      "Ġ70": 8611,
      "ĠãĤ¹ãĥļ": 8612,
      "}{": 8613,
      "agon": 8614,
      "ĠãĤµãĥĥãĤ«": 8615,
      "ãģ®æ´": 8616,
      "ĠTwo": 8617,
      "1992": 8618,
      "ĠãĥķãĤ©": 8619,
      "âĢĬ": 8620,
      "Ġ90": 8621,
      "ãģ®æĢ": 8622,
      "hÃ¤": 8623,
      "æ³ģ": 8624,
      "ĠInde": 8625,
      "uclear": 8626,
      "DL": 8627,
      "ĠPot": 8628,
      "TT": 8629,
      "Ġscored": 8630,
      "ãĥ³ãĥı": 8631,
      "Man": 8632,
      "ãĥĹãĥ¬ãĤ¤": 8633,
      "çĽ®çļĦ": 8634,
      "ĠJuan": 8635,
      "NHK": 8636,
      "å¯©": 8637,
      "atriate": 8638,
      "ãĥ¼ãĥªãĥ¼": 8639,
      "ĠNetwork": 8640,
      "ãģ¾ãĤĭ": 8641,
      "helm": 8642,
      "ĠÙģÙĦ": 8643,
      "Ġyoung": 8644,
      "Ġmondiale": 8645,
      "ĠCer": 8646,
      "å¥ª": 8647,
      "ãģĵãģ¨ãĤĤ": 8648,
      "ĠBon": 8649,
      "Ġpossible": 8650,
      "Ġãĥ´ãĤ¡": 8651,
      "ĠShang": 8652,
      "Ġide": 8653,
      "Ġnext": 8654,
      "ĠGroÃŁ": 8655,
      "ĠHÃ¶": 8656,
      "rig": 8657,
      "Bra": 8658,
      "åĴ²": 8659,
      "ç¥ĸ": 8660,
      "EL": 8661,
      "rote": 8662,
      "Ġparticular": 8663,
      "æİ²": 8664,
      "è·¯ç·ļ": 8665,
      "ç¬ĳãģĦ": 8666,
      "ĠYam": 8667,
      "iced": 8668,
      "æ²¼": 8669,
      "ennen": 8670,
      "ritt": 8671,
      "ĠmodÃ¨le": 8672,
      "çĶŁãģ¾ãĤĮ": 8673,
      "å¥Īå·ĿçľĮ": 8674,
      "å°ĤçĶ¨": 8675,
      "ãģıãĤī": 8676,
      "éŁĵåĽ½": 8677,
      "ĠSH": 8678,
      "ĠWindows": 8679,
      "umi": 8680,
      "å§«": 8681,
      "ommes": 8682,
      "ãģĦãģ¯": 8683,
      "ãĥĵãĤ¨": 8684,
      "Ġgreat": 8685,
      "ĠMÃ©d": 8686,
      "Ø§Ø·": 8687,
      "ĠHistoire": 8688,
      "ĠBoston": 8689,
      "Ù¾ÛĮØ´": 8690,
      "Ġè¥¿çµĮ": 8691,
      "ÙĪÙģ": 8692,
      "Ġæ·": 8693,
      "ĠæĿĳ": 8694,
      "vi": 8695,
      "ĠØ§Ø³ØªÙģØ§Ø¯Ùĩ": 8696,
      "åī¯": 8697,
      "ĠTar": 8698,
      "orded": 8699,
      "Ġcer": 8700,
      "ĠØ¨ÙĦ": 8701,
      "å²Ĳ": 8702,
      "Ġage": 8703,
      "phy": 8704,
      "ãĤĴåĲ«ãĤĢ": 8705,
      "ç§ĺ": 8706,
      "aries": 8707,
      "ãĥ¼ãĥªãĥ³ãĤ°": 8708,
      "ĠLat": 8709,
      "Ġãĥ´ãĤ£": 8710,
      "Ġattemp": 8711,
      "ãĥŀãĤ¹": 8712,
      "1997": 8713,
      "æĲº": 8714,
      "ãĥŁãĥ¥ãĥ¼ãĤ¸ãĥĥãĤ¯": 8715,
      "ĠMun": 8716,
      "Ġlow": 8717,
      "Ġgab": 8718,
      "ãĥĢãĤ¤": 8719,
      "ãĤ¢ãĤ¹": 8720,
      "Ġget": 8721,
      "åįł": 8722,
      "æĻ®": 8723,
      "Ġpolitique": 8724,
      "ĠJones": 8725,
      "Ġsuite": 8726,
      "ĠdeuxiÃ¨me": 8727,
      "Ġæ¸¡": 8728,
      "ãĥĭãĤ³": 8729,
      "ãĥªãĥªãĥ¼ãĤ¹": 8730,
      "ãģ®æ¯": 8731,
      "Se": 8732,
      "å±±çľĮ": 8733,
      "ç¦ģ": 8734,
      "Ġæĺİæ²»": 8735,
      "no": 8736,
      "ĠØ¬ÙĩØ§ÙĨÛĮ": 8737,
      "ellow": 8738,
      "Ġpsych": 8739,
      "åĽ½å®¶": 8740,
      "ĠãĥŃãĤ·ãĤ¢": 8741,
      "partement": 8742,
      "class": 8743,
      "glied": 8744,
      "asy": 8745,
      "ĠEine": 8746,
      "Ġvert": 8747,
      "}}\\": 8748,
      "Ġcas": 8749,
      "ãĤŃãĥ£ãĥ©ãĤ¯ãĤ¿ãĥ¼": 8750,
      "Ġhalf": 8751,
      "ãģĻãĤĭãģŁãĤģ": 8752,
      "ç¦ıå²¡": 8753,
      "thur": 8754,
      "hu": 8755,
      "inton": 8756,
      "isions": 8757,
      "ÙĨØ§": 8758,
      "ĠØ¯Ø§Ø±Ø¯": 8759,
      "ãĥĳãĥ©": 8760,
      "ĠãĤµãĥĥãĤ«ãĥ¼": 8761,
      "Ø´ÙĨØ§Ø³": 8762,
      "ãģ¾ãģ§ãģ®": 8763,
      "ä½ľæĪ¦": 8764,
      "ĠRem": 8765,
      "èĨ": 8766,
      "rin": 8767,
      "rypt": 8768,
      "acters": 8769,
      "Ġãģ¿": 8770,
      "ĠPublic": 8771,
      "Ġ=====": 8772,
      "ĠAS": 8773,
      "èªł": 8774,
      "ĠthÃ©": 8775,
      "Ġsignific": 8776,
      "quie": 8777,
      "Austral": 8778,
      "è¸": 8779,
      "IM": 8780,
      "Ġhowever": 8781,
      "ĠBil": 8782,
      "FuÃŁballspieler": 8783,
      "Ġfew": 8784,
      "ĠSprache": 8785,
      "æĦıåĳ³": 8786,
      "Ġpract": 8787,
      "pa": 8788,
      "eds": 8789,
      "Ġcase": 8790,
      "ĠCab": 8791,
      "ãģ£ãģ": 8792,
      "ãĥ¼ãĥ¡": 8793,
      "OP": 8794,
      "Ġcreated": 8795,
      "Ġimm": 8796,
      "ĠWikipÃ©dia": 8797,
      "ä¸Ńãģ®": 8798,
      "Ġchanson": 8799,
      "ĠEp": 8800,
      "ĠAccording": 8801,
      "ĠJr": 8802,
      "ĠKre": 8803,
      "Film": 8804,
      "Ġbatt": 8805,
      "æŃĮåĬĩ": 8806,
      "istance": 8807,
      "ãĥĭãĥĥãĤ¯": 8808,
      "iller": 8809,
      "weg": 8810,
      "ãģ«åĩº": 8811,
      "ĠProt": 8812,
      "bens": 8813,
      "èĥ½åĬĽ": 8814,
      "éĺ¿": 8815,
      "eon": 8816,
      "ĠATP": 8817,
      "ĠLar": 8818,
      "ĠVe": 8819,
      "ãĤ½ãĥ³ãĤ°": 8820,
      "baseball": 8821,
      "amerikan": 8822,
      "Ġless": 8823,
      "halb": 8824,
      "Ġseinen": 8825,
      "deut": 8826,
      "Ġdescribed": 8827,
      "Ġtw": 8828,
      "é¬¼": 8829,
      "åīįãģ®": 8830,
      "ç¡": 8831,
      "å¹ħ": 8832,
      "Ġsuper": 8833,
      ")ãĢģ": 8834,
      "Ġ1904": 8835,
      "Ġchildren": 8836,
      "Ġgre": 8837,
      "Ġbien": 8838,
      "éĤ£": 8839,
      "çĻºéĽ»": 8840,
      "ĠJohnson": 8841,
      "ãģ®ä¸Ģéĥ¨": 8842,
      "uda": 8843,
      "ĠéĪ´æľ¨": 8844,
      "ĠPu": 8845,
      "Espagne": 8846,
      "Ġhaben": 8847,
      "Is": 8848,
      "ĠMol": 8849,
      "Ġcle": 8850,
      "ĠArts": 8851,
      "å¤§ä½¿": 8852,
      "ãĥ¡ãĥĩãĤ£ãĤ¢": 8853,
      "asters": 8854,
      "Ġgold": 8855,
      "æŀł": 8856,
      "Ġãĥĸãĥ«": 8857,
      "éģİåİ»": 8858,
      "athlÃ©tisme": 8859,
      "èºį": 8860,
      "ĠEC": 8861,
      "ĠEins": 8862,
      "ı¡": 8863,
      "ĠJes": 8864,
      "Ġåĩºåħ¸ãĤĴå¿ħè¦ģãģ¨ãģĻãĤĭè¨ĺäºĭ": 8865,
      "ĠPass": 8866,
      "Russ": 8867,
      "halt": 8868,
      "ĠColl": 8869,
      "åĭĿåĪ©": 8870,
      "zt": 8871,
      "itan": 8872,
      "åº§æ¨Ļç³»": 8873,
      "ãĤ¹ãĤŃ": 8874,
      "äººãģ¯": 8875,
      "Ind": 8876,
      "ĠLud": 8877,
      "isher": 8878,
      "aval": 8879,
      "ãĥľãĤ¯": 8880,
      "chest": 8881,
      "ĠHome": 8882,
      "ĠlÃ©g": 8883,
      "istry": 8884,
      "Ġmale": 8885,
      "ãĤ®ãĥª": 8886,
      "æı®": 8887,
      "ç½²": 8888,
      "ĠAdminist": 8889,
      "Ġfeature": 8890,
      "èĦĪ": 8891,
      "ãĤ¹ãĤ¿ãĥ¼ãĤº": 8892,
      "ĠHow": 8893,
      "æ¨ªæµľ": 8894,
      "ĠPour": 8895,
      "ĠåĿ": 8896,
      "Ġæº": 8897,
      "ĠØ¯ÙĪØ±": 8898,
      "æķ°ãģ®": 8899,
      "ãĥ³ãĤ°ãĥ«": 8900,
      "Ø§Úĺ": 8901,
      "ĠExp": 8902,
      "ç·¨éĽĨ": 8903,
      "Ú¯Ø°": 8904,
      "ĠKr": 8905,
      "Ġfight": 8906,
      "çĶŁçī©": 8907,
      "ï¼ī-": 8908,
      "æĺĵ": 8909,
      "ĠEmperor": 8910,
      "ĠTag": 8911,
      "ĠToy": 8912,
      "ĠOther": 8913,
      "ĠSem": 8914,
      "abeth": 8915,
      "ghan": 8916,
      "ĠCle": 8917,
      "Ġview": 8918,
      "zeichnet": 8919,
      ");": 8920,
      "Ġpress": 8921,
      "Ġdata": 8922,
      "ĠMcC": 8923,
      "Ġanderen": 8924,
      "Ġéĺ¿": 8925,
      "orie": 8926,
      "Ġ1933": 8927,
      "ĠGrande": 8928,
      "ãģĮãģĤãģ£ãģŁ": 8929,
      "ĠspÃ©c": 8930,
      "ãĤ«ãĥ¼": 8931,
      "å¥½ãģį": 8932,
      "ãģ®ãģĮ": 8933,
      "Ġreported": 8934,
      "ĠFur": 8935,
      "Ġdmy": 8936,
      "Ã¼nf": 8937,
      "ãĥ«ãĤ®ãĥ¼": 8938,
      "ãģ®åĨħ": 8939,
      "ĠMike": 8940,
      "Ġæ³ķ": 8941,
      "åĲĳãģĳ": 8942,
      "ãĤ¦ãĤ§ãĤ¤": 8943,
      "èªī": 8944,
      "åħ¥ãĤĬ": 8945,
      "ĠÃľber": 8946,
      "åįļçī©é¤¨": 8947,
      "Ġä½ĲèĹ¤": 8948,
      "æİĽ": 8949,
      "éĩįè¦ģ": 8950,
      "Ġchange": 8951,
      "ĠLas": 8952,
      "ãģ®å¯¾": 8953,
      "Ġevery": 8954,
      "è©©": 8955,
      "ãĥ¼ãĤ¸ãĥ£": 8956,
      "ĠBoy": 8957,
      "Ã¼t": 8958,
      "æľĹ": 8959,
      "Ġindic": 8960,
      "ĠOst": 8961,
      "wig": 8962,
      "å°ĳå¹´": 8963,
      "éĭ": 8964,
      "è£ı": 8965,
      "ĠChris": 8966,
      "ĠRoll": 8967,
      "Ġbelie": 8968,
      "ãĥķãĥª": 8969,
      "èĩªçĦ¶": 8970,
      "andid": 8971,
      "Ú©Ø±Ø¯": 8972,
      "Ġmaking": 8973,
      "Ġinj": 8974,
      "inage": 8975,
      "len": 8976,
      "åĽŀåħ¨åĽ½": 8977,
      "ĠBou": 8978,
      "rait": 8979,
      "elta": 8980,
      "ĠEntertain": 8981,
      "geben": 8982,
      "å¤§åŃ¦éĻ¢": 8983,
      "ĠRang": 8984,
      "ãģ¨ãģĨ": 8985,
      "ãĥ©ãĤ°ãĥĵ": 8986,
      "ĠBall": 8987,
      "ĠAmazon": 8988,
      "chester": 8989,
      "Ġpil": 8990,
      "Ġquant": 8991,
      "ãĤ¨ãĥ³ãĤ¿": 8992,
      "mplate": 8993,
      "rime": 8994,
      "Ġsoit": 8995,
      "Ġrights": 8996,
      "Ã¶glich": 8997,
      "anth": 8998,
      "ãĤŃãĤ·ãĤ³": 8999,
      "ãĥķãĤ©ãĥ«": 9000,
      "Ġsepar": 9001,
      "ĠMilitary": 9002,
      "Ġç©": 9003,
      "éľ²": 9004,
      "atellite": 9005,
      "ĠéŁ³æ¥½": 9006,
      "è²·": 9007,
      "gg": 9008,
      "Tw": 9009,
      "icher": 9010,
      "ĠTal": 9011,
      "Ġé³": 9012,
      "olas": 9013,
      "Ġsens": 9014,
      "æ²¹": 9015,
      "Uni": 9016,
      "inet": 9017,
      "ÙĨØª": 9018,
      "ãĤĴä½¿": 9019,
      "Ġtreat": 9020,
      "æĶ¯æı´": 9021,
      "éŃĶæ³ķ": 9022,
      "1995": 9023,
      "respond": 9024,
      "ronic": 9025,
      "Ġgesch": 9026,
      "ĠGÃ©": 9027,
      "ãĤ³ãĥ³ãĥĨãĥĬ": 9028,
      "ĠĠĠĠ": 9029,
      "ĠGovernment": 9030,
      "åŁ·": 9031,
      "ĠParliament": 9032,
      "ĠSome": 9033,
      "alysis": 9034,
      "çµĦãģ¿": 9035,
      "å®Įåħ¨": 9036,
      "äºĭåĭĻæīĢ": 9037,
      "Ġåħĥ": 9038,
      "atrix": 9039,
      "ĠAlban": 9040,
      "æķµ": 9041,
      "ãĤ¿ãĥªãĤ¢": 9042,
      "Ġstubs": 9043,
      "data": 9044,
      "Ġbronze": 9045,
      "èĩ³": 9046,
      "ĠEver": 9047,
      "éĥ¨å±ĭ": 9048,
      "ando": 9049,
      "ĠåĢ": 9050,
      "ç¯Ħ": 9051,
      "éĳ": 9052,
      "Ġcontenant": 9053,
      "Ġoccup": 9054,
      "Ġmagn": 9055,
      "ãĤ¸ãĥ£ãĥ³": 9056,
      "ding": 9057,
      "ãĥģãĥ§": 9058,
      "è¨Ńå®ļ": 9059,
      "ĠGymnast": 9060,
      "ãĤ»ãĥ«": 9061,
      "Ġleurs": 9062,
      "ogra": 9063,
      "ĠDigital": 9064,
      "ãĤ¯ãĥ«": 9065,
      "Ġguerre": 9066,
      "Ġsche": 9067,
      "å©¦": 9068,
      "Ġdisp": 9069,
      "Ã§ois": 9070,
      "ĠWayback": 9071,
      "ĠDutch": 9072,
      "ĠCarlos": 9073,
      "rs": 9074,
      "Ġess": 9075,
      "ãĤ¹ãĥŃ": 9076,
      "ampf": 9077,
      "ãģ«ãģ¤ãģĦãģ¦ãģ¯": 9078,
      "ãĤ°ãĥŃ": 9079,
      "Ħª": 9080,
      "ĠTun": 9081,
      "Ġprovince": 9082,
      "ĠPrince": 9083,
      "ãĥĿãĥ¼ãĥ«": 9084,
      "ãĥ¬ãĥĥãĥī": 9085,
      "ĠWars": 9086,
      "Ġwel": 9087,
      "ãĥ¼ãĥģãĤ§": 9088,
      "ãģĹãģ¦ãģĦãģªãģĦ": 9089,
      "æ³³": 9090,
      "Ġproblem": 9091,
      "ĠMir": 9092,
      "Ġèģ": 9093,
      "ĠUN": 9094,
      "Ġãģķ": 9095,
      "ĠçĽ¸": 9096,
      "æĸĻçĲĨ": 9097,
      "pression": 9098,
      "gleterre": 9099,
      "occ": 9100,
      "stitut": 9101,
      "éª¨": 9102,
      "Ġbesch": 9103,
      "ĠDrag": 9104,
      "ends": 9105,
      "cu": 9106,
      "ç¨İ": 9107,
      "Ġgrow": 9108,
      "strument": 9109,
      "licher": 9110,
      "ĠMadrid": 9111,
      "ounds": 9112,
      "ĠPy": 9113,
      "Ġmetre": 9114,
      "ØµØ±": 9115,
      "ä¸įæĺİ": 9116,
      "Ġdeveloped": 9117,
      "ãģĿãģĵ": 9118,
      "ãĤĴéĸĭå§ĭ": 9119,
      "åĨħãģ®": 9120,
      "ä¼ļéķ·": 9121,
      "ĠRevolution": 9122,
      "ä¿ĿèŃ·": 9123,
      "Ġrelease": 9124,
      "Ġåľ°çĲĨåº§æ¨Ļç³»": 9125,
      "okal": 9126,
      "Ġautomobile": 9127,
      "ĠMess": 9128,
      "ĠFace": 9129,
      "Ġscript": 9130,
      "å¹´ãģ®æĶ¿æ²»": 9131,
      "ãĥ¡ãĥ«": 9132,
      "ĠÙĨÙĪ": 9133,
      "Ã©rature": 9134,
      "å±±å¸Ĥ": 9135,
      "Ä«": 9136,
      "æĿ¡ç´Ħ": 9137,
      "ä¸ĸçķĮå¤§æĪ¦": 9138,
      "ãĤ¸ãĤ·ãĥ§ãĥ³": 9139,
      "ĠMost": 9140,
      "å¸¸ãģ«": 9141,
      "ãģ®ä¸Ģãģ¤": 9142,
      "åĭ¤": 9143,
      "ĠBeach": 9144,
      "ĠÙĨÙĤ": 9145,
      "Ġacqu": 9146,
      "Ġeinz": 9147,
      "ãĥĨãĤ£ãĥ³ãĤ°": 9148,
      "ķçĶŁ": 9149,
      "ĠÃ¶": 9150,
      "èĩ¨": 9151,
      "ç°": 9152,
      "Ġseinem": 9153,
      "ĠOrig": 9154,
      "ãĥ¬ãĥ³ãĥĪ": 9155,
      "Ġaller": 9156,
      "çłĤ": 9157,
      "Ġben": 9158,
      "ĠÃİ": 9159,
      "å¤§çµ±éłĺ": 9160,
      "ĠÙħØ§Ø±": 9161,
      "Ġextens": 9162,
      "ĠTay": 9163,
      "ãĤ±ãĥ«": 9164,
      "fant": 9165,
      "çĽ¸æīĭ": 9166,
      "oli": 9167,
      "oles": 9168,
      "ãģ®æ¥": 9169,
      "ĠUnt": 9170,
      "ãģ®å¿": 9171,
      "è¦³åħī": 9172,
      "ĠEntertainment": 9173,
      "ĠCivil": 9174,
      "ãĤ´ãĥ¼ãĥ«": 9175,
      "è¨ĺè¿°": 9176,
      "æ¬ł": 9177,
      "ĠCre": 9178,
      "æ¿Ģ": 9179,
      "ãĥ³ãĥĶãĥ¥ãĥ¼ãĤ¿": 9180,
      "Ġquatre": 9181,
      "ĠØ§Ø³ØªØ§ÙĨ": 9182,
      "anies": 9183,
      "ĠAC": 9184,
      "ĠChallen": 9185,
      "osaurus": 9186,
      "Ġsystems": 9187,
      "ãģ«ãģĤ": 9188,
      "Ġãģĵ": 9189,
      "ĠRoyaume": 9190,
      "ĠCrit": 9191,
      "Ġmethod": 9192,
      "Th": 9193,
      "Ġappar": 9194,
      "cs": 9195,
      "wh": 9196,
      "ãģ®äººçī©": 9197,
      "athan": 9198,
      "Arch": 9199,
      "Ġfest": 9200,
      "ingham": 9201,
      "åĪ¸": 9202,
      "å¥³åĦª": 9203,
      "IG": 9204,
      "ĠSav": 9205,
      "lein": 9206,
      "æģ¯": 9207,
      "Ġ32": 9208,
      "æ³°": 9209,
      "Ġihn": 9210,
      "æ¬¡ä¸ĸçķĮå¤§æĪ¦": 9211,
      "Ġphilosoph": 9212,
      "Ġtrack": 9213,
      "ç´¹": 9214,
      "ucht": 9215,
      "ãģ«éĸ¢ãģĻãĤĭãĤ¹ãĤ¿ãĥĸ": 9216,
      "inea": 9217,
      "Ġartistique": 9218,
      "Ã©dÃ©ration": 9219,
      "ĠLith": 9220,
      "bourg": 9221,
      "ãĥ©ãĥŀ": 9222,
      "head": 9223,
      "IL": 9224,
      "tor": 9225,
      "ĠAnne": 9226,
      "ĠLiving": 9227,
      "Ġjud": 9228,
      "ving": 9229,
      "ĠrÃ©gion": 9230,
      "IA": 9231,
      "igung": 9232,
      "iri": 9233,
      "ocal": 9234,
      "çĦ¼": 9235,
      "ãĤĪãģĨãģ«ãģªãģ£ãģŁ": 9236,
      "uppen": 9237,
      "ÙĦÙĩ": 9238,
      "ĠDor": 9239,
      "ãģĦãģ§": 9240,
      "å½ĵåĪĿ": 9241,
      "ĠLCCNèŃĺåĪ¥åŃĲãģĮæĮĩå®ļãģķãĤĮãģ¦ãģĦãĤĭè¨ĺäºĭ": 9242,
      "Ġéħ": 9243,
      "ailles": 9244,
      "ĠDevelop": 9245,
      "isterschaft": 9246,
      "è¨Ńè¨Ī": 9247,
      "Ġofficiel": 9248,
      "omer": 9249,
      "çĽĬ": 9250,
      "Ġé§": 9251,
      "League": 9252,
      "ãĤıãĤĭ": 9253,
      "1993": 9254,
      "ĠFlorida": 9255,
      "åŁİçľĮ": 9256,
      "Star": 9257,
      "inÃ©e": 9258,
      "uela": 9259,
      "ģ¡": 9260,
      "éĸĭåĤ¬ãģķãĤĮãģŁ": 9261,
      "æĪĲåĬŁ": 9262,
      "ĠRy": 9263,
      "ĠMunicipality": 9264,
      "å¤©çļĩ": 9265,
      "Ġbody": 9266,
      "Ġç¤": 9267,
      "è©¦é¨ĵ": 9268,
      "Ġä¸ŃæĿĳ": 9269,
      "Ġæ°¸": 9270,
      "issenschaft": 9271,
      "ãģ¨åĲĮãģĺ": 9272,
      "ĠSerie": 9273,
      "vey": 9274,
      "ĠNavy": 9275,
      "ãĤĤãģ®ãģ§ãģĤãĤĭ": 9276,
      "xes": 9277,
      "ĠEarth": 9278,
      "ãģ«ãģĹãģŁ": 9279,
      "Ġvehic": 9280,
      "è¿°ãģ¹": 9281,
      "å¡ļæŃĮåĬĩ": 9282,
      "ãģ®ãģŁãĤģãģ«": 9283,
      "æĳ©": 9284,
      "ãĤ¯ãĥ©ãĤ¹": 9285,
      "ãģĹãĤĩãģĨ": 9286,
      "¼çİīçľĮ": 9287,
      "zahl": 9288,
      "Ġobserv": 9289,
      "Wikipedia": 9290,
      "lyn": 9291,
      "las": 9292,
      "Ġminutes": 9293,
      "ĠKap": 9294,
      "omes": 9295,
      "Ġstand": 9296,
      "Ù¾Ø±": 9297,
      "ãĤ¦ãĤ§ãĤ¢": 9298,
      "ãĤ¸ãĥ¥ãĥĭãĤ¢": 9299,
      "bour": 9300,
      "oviÄĩ": 9301,
      "OT": 9302,
      "roll": 9303,
      "Ġfurther": 9304,
      "ista": 9305,
      "Ġletz": 9306,
      "ĠæľĪ": 9307,
      "Ġtous": 9308,
      "iate": 9309,
      "ĠDoubles": 9310,
      "Ø²Ø§Ø±": 9311,
      "çĲĨåŃ¦": 9312,
      "éĢĥ": 9313,
      "è¡Įåĭķ": 9314,
      "Ġcentre": 9315,
      "ĠLibert": 9316,
      "ground": 9317,
      "å¤ļãģıãģ®": 9318,
      "ĠäºĶ": 9319,
      "èı¯äººæ°ĳåħ±åĴĮåĽ½": 9320,
      "itzerland": 9321,
      "ĠPenn": 9322,
      "inÃ©": 9323,
      "Ġrespons": 9324,
      "Ġavail": 9325,
      "Ġ1934": 9326,
      "ãĤĵãģ©": 9327,
      "Ġinformation": 9328,
      "Ġvolley": 9329,
      "rac": 9330,
      "Ġred": 9331,
      "Ġdomin": 9332,
      "oral": 9333,
      "åī¤": 9334,
      "éĸĭæ¥Ń": 9335,
      "äºĪå®ļ": 9336,
      "aven": 9337,
      "riche": 9338,
      "ĠTreat": 9339,
      "Mus": 9340,
      "Ġdoes": 9341,
      "anton": 9342,
      "oming": 9343,
      "çīĩ": 9344,
      "Ġwent": 9345,
      "grund": 9346,
      "zer": 9347,
      "ĠColumb": 9348,
      "Ġcharacters": 9349,
      "ĠØ¬ÙĨÙĪØ¨ÛĮ": 9350,
      "din": 9351,
      "ĠWalter": 9352,
      "ĠÃĸsterreich": 9353,
      "ĠPf": 9354,
      "ãģĽãĤĭ": 9355,
      "Ġåįĥèĳī": 9356,
      "berto": 9357,
      "çı¾ä»£": 9358,
      "ãĥģãĥ£ãĥ³ãĥĶ": 9359,
      "ĠMarie": 9360,
      "é¡Ķ": 9361,
      "ĠPhys": 9362,
      "Ġbereits": 9363,
      "ÛĮØ³": 9364,
      "Ġbuilding": 9365,
      "ãģ®ä¸Ĭ": 9366,
      "ãĥ³ãĥļ": 9367,
      "ĠBau": 9368,
      "ãģ®åł´åĲĪ": 9369,
      "ç©Ĥ": 9370,
      "Ġcommune": 9371,
      "ĠSuisse": 9372,
      "ctic": 9373,
      "ãĥ¼ãĤ´": 9374,
      "Ġæ¤": 9375,
      "oster": 9376,
      "Ġvari": 9377,
      "ĠPsych": 9378,
      "gers": 9379,
      "ĠKu": 9380,
      "Ġmoved": 9381,
      "ĠDur": 9382,
      "ãĤīãĤĮãģ¦": 9383,
      "rique": 9384,
      "chie": 9385,
      "Ġcontempor": 9386,
      "Mann": 9387,
      "å°ļ": 9388,
      "ielt": 9389,
      "fan": 9390,
      "1989": 9391,
      "ãģ®åįĹ": 9392,
      "åįļå£«": 9393,
      "IVE": 9394,
      "ients": 9395,
      "çµĲå©ļ": 9396,
      "iop": 9397,
      "Ġfull": 9398,
      "Ġast": 9399,
      "ecutive": 9400,
      "UN": 9401,
      "ito": 9402,
      "ĠLatin": 9403,
      "ĠæŃ£": 9404,
      "iant": 9405,
      "1980": 9406,
      "é¡į": 9407,
      "Ġnumbers": 9408,
      "ĠSkating": 9409,
      "éĽĳèªĮ": 9410,
      "Ġmm": 9411,
      "ĠShow": 9412,
      "ĠJordan": 9413,
      "Ġelement": 9414,
      "Ġstatt": 9415,
      "ãģĹãģ°": 9416,
      "Ġunion": 9417,
      "Ġdate": 9418,
      "ĠLog": 9419,
      "ãģ¾ãģ£ãģŁ": 9420,
      "ãĥĻãĤ¹ãĥĪ": 9421,
      "count": 9422,
      "ĠWer": 9423,
      "imation": 9424,
      "Ġjoined": 9425,
      "aper": 9426,
      "Ú©ÙĦ": 9427,
      "è³ĩæĸĻ": 9428,
      "ĠKil": 9429,
      "ĠNa": 9430,
      "Ø±ÛĮØª": 9431,
      "èĴ": 9432,
      "ãĤıãĤĮãģŁ": 9433,
      "ĠEngine": 9434,
      "åıĮ": 9435,
      "éĺľ": 9436,
      "Ġtitre": 9437,
      "ĠSecret": 9438,
      "Ġihrer": 9439,
      "Ġsurv": 9440,
      "ured": 9441,
      "ãĥ¼ãĤ·ãĤ¢": 9442,
      "ĠOperation": 9443,
      "Ġspiel": 9444,
      "ĠNC": 9445,
      "ãĤ¦ãĤ§ãĥĸ": 9446,
      "è¼Ķ": 9447,
      "Ġrom": 9448,
      "ĠHay": 9449,
      "Ã¶m": 9450,
      "Ġrank": 9451,
      "ãģ®æ³": 9452,
      "Ġè¾": 9453,
      "WE": 9454,
      "Ġjoue": 9455,
      "çı¾åľ¨ãģ®": 9456,
      "çķ°ãģªãĤĭ": 9457,
      "Ġæ³¨": 9458,
      "Ġqualification": 9459,
      "ning": 9460,
      "oni": 9461,
      "ãĥĩãĤ£ãĥ³ãĤ°": 9462,
      "mir": 9463,
      "Ġforce": 9464,
      "ãĤ¤ãĥ³ãĥĪ": 9465,
      "ç·ıéģ¸æĮĻ": 9466,
      "Ã¼nd": 9467,
      "ateurs": 9468,
      "Biographie": 9469,
      "cine": 9470,
      "åĪ¶åº¦": 9471,
      "Ġbeste": 9472,
      "Ġworks": 9473,
      "Ġmusical": 9474,
      "ĠgrÃ¶": 9475,
      "å´İå¸Ĥ": 9476,
      "ĠJackson": 9477,
      "rondissement": 9478,
      "ãģķãĤĮãģ¦ãģĬãĤĬ": 9479,
      "ãĤīãģĭ": 9480,
      "åĭķçī©": 9481,
      "ĠVerw": 9482,
      "ĠFA": 9483,
      "æ£ĭ": 9484,
      "Ø³ØªÙĩ": 9485,
      "ãĢĳ": 9486,
      "Ġfather": 9487,
      "é½": 9488,
      "ĠRud": 9489,
      "ĠåŃ¦æł¡": 9490,
      "ãĢĲ": 9491,
      "å·¨": 9492,
      "çī¹å¾´": 9493,
      "ãĥŀãĤ¸ãĥĥãĤ¯": 9494,
      "ĠOrder": 9495,
      "cop": 9496,
      "ĠLo": 9497,
      "Ġstage": 9498,
      "Ġbusiness": 9499,
      "ãĥıãĥł": 9500,
      "ãĥĻãĤ¤": 9501,
      "ç«ĭãģ¡": 9502,
      "inson": 9503,
      "ÛĮÙħÛĮ": 9504,
      "ãĥķãĤ£ãĤ®ãĥ¥ãĤ¢ãĤ¹ãĤ±ãĥ¼ãĥĪ": 9505,
      "ç¶Ń": 9506,
      "Ġ1935": 9507,
      "Ġfav": 9508,
      "Ã¤nger": 9509,
      "ellschaft": 9510,
      "è©³": 9511,
      "ĠUTC": 9512,
      "ĠEducation": 9513,
      "ãĤ¤ãĥł": 9514,
      "ĠAllemagne": 9515,
      "ĠåĪĿ": 9516,
      "Ġ1906": 9517,
      "Ġæ¢": 9518,
      "ĠVar": 9519,
      "æ¤įçī©": 9520,
      "Ã¼l": 9521,
      "ĠLew": 9522,
      "ĠtÃ©lÃ©vision": 9523,
      "used": 9524,
      "è©ķä¾¡": 9525,
      "igan": 9526,
      "ãģ®æĦı": 9527,
      "å¤§èĩ£": 9528,
      "Ġgibt": 9529,
      "ĠDurch": 9530,
      "ĠæĢ": 9531,
      "ãĤ¸ãĥ³": 9532,
      "oslav": 9533,
      "ãĤĴä¸Ńå¿ĥ": 9534,
      "Ġareas": 9535,
      "Twitter": 9536,
      "Ġâģ¡": 9537,
      "Ġquel": 9538,
      "ãĥ¼ãĥįãĥĥãĥĪ": 9539,
      "¾éĢģ": 9540,
      "ĠMarine": 9541,
      "Ø´Øª": 9542,
      "time": 9543,
      "ĠCa": 9544,
      "igur": 9545,
      "ĠDiese": 9546,
      "oppel": 9547,
      "ãĥĭãĥ³ãĤ°": 9548,
      "AST": 9549,
      "Ġmaterial": 9550,
      "ĠAri": 9551,
      "ç¿¼": 9552,
      "æ©Łèĥ½": 9553,
      "Ġé¦Ļ": 9554,
      "Ġchampionnat": 9555,
      "æĺŃ": 9556,
      "ãģŁãģłãģĹ": 9557,
      "ĠGrund": 9558,
      "ĠAndrew": 9559,
      "å·±": 9560,
      "left": 9561,
      "ĠãĥĦ": 9562,
      "appen": 9563,
      "ãģ¾ãĤĮãĤĭ": 9564,
      "lying": 9565,
      "di": 9566,
      "ĠFore": 9567,
      "ç´į": 9568,
      "Ġstations": 9569,
      "Ġrev": 9570,
      "ãģĺãģ¦": 9571,
      "Ã©nie": 9572,
      "mals": 9573,
      "ĠØ§Ø¨": 9574,
      "Ġchampion": 9575,
      "Ġéł": 9576,
      "ĠAuthority": 9577,
      "song": 9578,
      "arter": 9579,
      "ĠConf": 9580,
      "ãĤ¿ãĥ³": 9581,
      "ĠSwitzerland": 9582,
      "ãĥ³ãĤ¼ãĥ«ãĤ¹": 9583,
[...]
